// DS-Conv2D-H1 weight bank INT16 — Vivado $readmemh
// Each line = one 16-bit word, hex, two's complement
// layout=per_tensor_int16
00B4
5AC7
7E64
24F1
06CF
FE23
6848
7FFF
1044
0DCC
3307
D3B2
FE1B
D5D1
07C0
1ED1
3704
F00F
A205
2C94
097E
F812
1EA7
3442
7FFF
9640
3490
1E05
DCCE
02AF
FA3D
4480
2BBC
A4E6
D490
7FFF
F463
C789
8743
3653
EDF8
9C99
A228
BA30
162D
A4E2
2BA7
5847
D97E
66B1
23E1
57B5
214D
1B3C
2085
3F63
244D
68BD
2ACE
55E0
37C9
2DF1
7FFF
565C
21A5
4D48
7D18
42B6
37DF
72D1
68C5
32E4
2AA5
79DE
7A8C
70E7
77FE
7ACC
7B47
6A85
6C8F
77B1
71C5
7470
7294
7739
706D
6BF4
7274
7FFF
74F8
6E8A
7AAA
6C90
6C74
6B4D
7981
FEAB
ECA8
D55A
07AA
0222
97DA
F861
C057
F28E
F1FF
EED7
0793
F1FF
5F49
AF4D
F2F0
FD8D
0AC0
E5AA
07B1
28C6
23FE
F9C3
2D5F
0C93
19AE
21B3
2A7F
D3E9
D2AF
DC69
E5C5
C842
1C43
CB0E
0A10
EC37
2170
2B0E
2635
D862
0D9A
1607
0ECD
64C4
E7E1
0787
0F68
C53D
F4B7
1AE6
EF07
0EED
0B66
D979
0D88
0597
C4D3
0C4B
1400
16DC
0D8D
F7A2
F1A4
E1A7
0A2E
DDE6
0CF0
44B0
0143
BD49
F72C
0BE7
2E0A
ED43
6341
E51A
E9C8
01BA
BA67
0033
ED26
0947
0778
277A
F468
5C6B
B359
EEF5
EC8C
45D1
17F1
FC6F
E9AC
18E3
EB69
F528
22EC
3869
3455
FB00
0515
E0FE
11C5
EEB0
DBB0
F245
E640
26C2
26C2
1262
0930
C8FA
129E
EE61
16FB
FE1C
3565
2BE5
04AE
D65C
94E3
D823
1351
28FA
F19C
F302
FB4D
05B2
22DB
064F
F1DD
0282
D412
C71D
B8AA
E3D3
05CD
FFD1
D022
CD8A
0647
2FC5
DBAC
2A01
19D1
F80B
0152
37B4
D252
12B0
30C4
245F
15EA
FB89
CE45
0651
F908
1150
3E18
1103
DC14
3652
35A5
307B
ED96
0785
203E
BAF3
C8C2
4207
163F
CDF5
289E
E4E0
FF8C
09A5
F047
F4EA
27E4
2938
27C6
0DD1
0410
1199
0043
EE0C
FE66
BDEF
DA42
CCF3
D550
F546
DB92
FD57
A492
D972
CDA6
DDFE
2904
E211
E888
E512
FC46
FAA4
E419
0B15
2973
D61C
F684
EE11
E4C8
0D02
FE89
BA4C
49D8
1612
24FF
1554
41B0
1450
26A1
3FF9
F1A1
B913
4172
1405
ED24
0DCE
0957
06CA
F93D
D1BA
C26F
3846
0345
EF7F
11E7
D284
D991
C8CF
0252
1514
C329
EC4A
14E7
FC15
F60F
0D23
0314
E5D1
ECE9
F1DF
894E
27CC
A322
2A17
1B49
0DC2
B86B
E9B0
D944
1BD4
FAEF
EA5A
F50E
CA38
DDCE
FB9D
0B73
1871
D54D
D68A
FAB9
0200
FAD4
B3F3
B583
1DD3
F6F5
1E5E
F8E4
F3AD
0170
F3FD
210B
0639
E99B
2054
01DC
AF0D
D6E6
0A9D
2808
359D
0932
E907
3459
25DC
C6A3
1F24
D985
A09A
DF87
FF55
019B
E0E0
D488
3576
0E26
0ED8
02AC
A119
E52E
14C6
C237
C5D1
EA12
E103
12B0
F8F7
F806
EDF4
EA82
2744
594F
F8E9
7FFF
08DC
32B6
FCFD
3834
1E4A
F1A4
E8D2
31BC
0C30
F0A1
F742
EFAB
246F
0C63
15C1
2150
2718
E6BD
C25C
0D3D
268F
F794
FDF3
1D6B
EB51
0633
38C9
F9C5
F711
2D95
BE6C
B076
10B2
06E8
2323
0EE9
2DB5
2EDF
59F7
29DE
FEFF
1765
E4A4
13F3
300B
0BB9
0C01
4F32
1F44
310F
3744
DD48
39B4
34FC
1776
B967
1438
250E
3D5C
E705
19C5
271B
7FFF
C524
7FFF
FF73
0EAF
DB91
C7AE
C284
BE63
E895
A84A
8001
8267
CA4D
827C
23C7
C4C2
B17C
D51D
2DC4
2399
CFD5
DE0D
0EC8
EAF7
CB2D
D57A
C975
AD6D
1309
3A2F
F56B
5741
323D
D143
2622
3407
4C3F
403B
3699
20D4
2FCC
365B
3075
5BB4
54DC
6E8F
461B
4317
7FFF
4BE8
486D
46DF
21DC
2A2F
35AA
3561
3981
2DA6
2E97
34D2
5AE6
3158
2F16
35F1
4695
3A44
6A65
7406
6969
7FFF
65E7
63A2
5AE6
6374
69C6
6C20
68D4
6C9B
635D
70B8
6B28
5DCE
6ACB
64B7
6590
699F
620D
6645
6F0B
5BC6
70DD
6573
621E
6948
6B9F
656B
53D1
60DB
FA49
D838
2F56
CCD1
0DBC
DB2A
054C
F52E
30B0
F02A
D3A7
2CF8
E10D
12A5
4853
1E77
4589
28BF
FDB0
1105
C519
0396
8E73
02D1
0E8C
255F
1E82
2DBC
DB91
06BA
337D
CCA1
0974
5D05
8C1A
DB30
3602
EAF2
0A1D
0EDA
BF86
35FE
CE12
0261
2714
E0D5
C0FE
426F
D13D
EFE3
3A0B
40C9
0DB6
EC5C
E506
D364
0EBC
02AB
D193
F1FF
1B35
FA65
D499
2AA4
C8B2
33BA
A514
9A5D
10BC
EC1E
E91D
5FC6
1621
253D
DF85
F2D2
A136
C1B9
C75F
008B
C241
14E1
EA57
1D30
EEB3
0052
A27E
0DC1
1204
C77B
5E9C
CD8B
F75D
23F4
2591
0B41
A353
CCA2
0E5A
110C
CEC9
C43A
EBDD
15BD
3B0A
F412
1DCE
B55A
E0AC
F926
B219
3A8C
D79B
C05B
0232
DA3E
F1EB
0CE7
115A
63D0
BBC2
B937
D0E9
C7C5
C638
1B9E
3C56
E84E
D525
D909
0321
09BD
0354
DE35
28FE
46CB
E169
5CA9
EC66
DA7D
1044
08BC
1166
BD27
2D7E
ED3F
EE4D
5274
2443
1FD4
07D3
4055
F0FD
ADA0
E824
2256
C5B4
FB33
C127
C86E
37E8
E27F
E3D6
F2C7
E03C
E84E
F67F
039F
AF0E
1590
AD5E
F834
D63E
DEE6
2A2B
C573
D201
CFE4
E919
61D0
EBE7
186E
D70C
1600
06A6
94E0
30EA
03A5
4F6B
05D2
D2B5
C900
E673
DBD2
BA1E
18AD
D25C
0FA5
FA58
C9E3
0E13
A6E4
EAC9
F6F1
170E
C3E5
F747
C9B8
EAC3
B65F
C35B
01F7
F531
05B6
3B58
C545
EB00
AB96
F200
C7BC
FC3E
C6C0
F55D
2D88
F54D
CA23
CF15
E212
D1A5
928D
E66B
278C
05F0
FA06
0CCD
C879
EB31
386A
F653
E34D
1FB7
7971
BE8D
EABC
13DC
8001
302E
C07C
FAAC
2C38
B94D
D1B3
0F40
2353
DF3B
D613
C7D2
1666
3E33
0F98
C0C7
0844
C268
F714
F494
0A2A
2F3C
0695
1370
32A3
AB82
88F5
175F
1A58
D989
FC70
1527
B897
B5A9
E855
BE36
CB86
BBED
071D
F31C
ABFA
DE96
EAB3
1815
E838
E533
E892
281E
EFCE
3C40
D3AB
2A34
F5AE
1E43
778A
0DEF
1DD0
33DE
0155
E962
1702
A00D
4E9A
CB77
2961
07A9
BBDB
EBD8
2315
D970
E6D5
3214
D21A
117D
E09E
F546
E6BD
A3EA
F7A6
13DB
0EDC
E52F
740C
F9A3
2066
F320
44EC
8B54
9253
E76A
E71B
0CBF
0E04
BBC4
4E9A
D836
019F
FBC8
AFEE
26D2
E26C
AD8F
EF10
1241
2318
DF49
0803
B060
10FD
F83B
CF1C
2417
FD32
D4BA
D6CD
BA86
C1CD
1AFC
306D
1F21
0625
039F
1031
F9CA
C59F
D077
F3A7
106C
C505
B1B3
EBB3
52C9
0A99
A2F4
31B5
AFB5
5643
FE85
039F
E1CC
F7BD
E92C
EEB4
D97C
32A1
5F17
46DA
FBB8
F74C
BDFB
2254
E67A
205E
477B
3603
FAF5
E440
E677
315D
1EE9
06BE
F773
10C5
24AB
F92B
5479
FC24
1D25
6F21
21B6
4E0D
33D0
1253
B47D
F2AB
A01A
F783
FF58
DE2B
1F95
DB4E
0794
F2B7
1116
EB20
E5CE
FC0E
2174
E5A1
C644
E1C8
FA5E
2BB9
E7C9
F383
D154
ADF2
D939
05F0
2D33
099B
F7BB
086B
0757
A639
FB39
3EF0
E4C3
3A9F
F1D9
FC8C
DABC
DB78
086A
ED25
DDB2
1835
0B45
C6FA
C567
1C24
478E
0640
06BA
CC8C
2521
FB44
0F84
EE33
1C46
05A8
A509
EF6B
3D53
E7DA
50F9
C864
99C8
430A
04F0
5475
2103
285E
15B2
EA88
E9EF
319D
DB0D
0A47
F241
E76D
0132
3274
E83A
EBCA
EFF2
FBCB
FDCF
EE96
1A4F
C848
4387
D3E3
A4AD
26EC
0FC7
3A62
0C43
1F8E
3065
EF91
DA68
DB14
E8B0
2E57
1CF1
1CD3
2C9D
CBB5
CA65
F2CD
BA3F
CB77
E960
E883
F606
0AE4
1F73
C913
3CBE
21A5
085F
D201
E7C4
F2C1
516F
ADC5
CF44
D30E
F951
12FC
0FA7
EA59
E219
3A67
C4EA
CC79
E494
EC15
ED9B
E893
ECC8
308D
E445
E524
BAF6
FCD0
BF22
EB4F
7658
D4BC
B46B
EB44
C876
4C23
21B6
FFAA
E7C1
122E
3E06
194D
1380
D4D2
C86C
72E2
F564
F47F
10BE
CF2A
E219
9D12
EFF9
E300
ECB7
1335
352D
EC90
CF4C
F4DC
1F74
1EE4
0F76
D6A2
1448
D3F7
F4EB
E1D4
D38D
FE63
188D
F97A
359A
D715
A154
05B6
FC34
D1E7
A3C9
1406
9F98
EDFE
F5A8
F203
30BA
325E
01B0
D125
2DF4
D8FF
3E9C
F34B
0F10
E898
F39C
50C9
E966
CC94
CBEA
F339
AA36
58EE
1A6F
383B
DE1E
D069
32EA
4421
0E59
10CB
0EA3
40A2
CA1E
E7AD
2CD3
FB5E
3A0A
0CD4
1364
DDB3
D876
959B
C818
14FA
02AC
D72A
FF50
2C18
24B2
F7A7
0A9C
36E2
3C66
3E51
CAEA
2580
236A
6019
7916
D3FF
DF1F
33F3
0598
EC5C
E31A
E0D6
C199
ED61
3B14
170B
E5A4
D76A
1135
4312
9E0F
FAE4
C85F
0B52
FECF
154E
5B99
DF91
41AE
F608
21A8
DE19
50E5
F8F6
F3A8
202B
1931
0E5E
D443
DF59
0BBB
F026
FC90
0573
28A2
F245
34DA
571E
FD6D
6557
1A8A
EF63
CCEB
0D64
C698
127A
2F33
049B
EBEE
2FA2
3983
4FAD
3BB1
2DBC
32F1
0AA7
4387
E4E5
E59C
9D09
30A5
FA22
AB11
2894
0A41
04A3
F761
C13B
C001
E956
0B5C
3571
524B
D4E0
3ECB
042B
00D6
865B
B57A
22DC
E0D2
CB44
1FCC
F558
F01F
ED64
B5A7
2515
FA75
31A1
014D
4834
0271
3C7B
3E40
37EE
47E1
DE97
F873
41AD
CA2F
F7B6
ED94
095A
092C
51B7
13E8
6EB3
0407
D403
0F40
3392
366E
34A9
138C
38E7
6F2E
E675
0B2F
1A52
7FFF
0EFF
7FFF
0B47
1727
2926
72C6
DA1D
311E
08E4
FDB0
2190
18F2
A721
D4B5
FE79
2AD1
0050
32E9
5609
3249
CE43
EA4C
BF82
8001
9DA0
106A
17EF
4E8A
105D
E9E2
C135
B803
1CB7
1CD8
0B14
09BB
06B1
1359
07C0
0AF1
0AD3
04EC
04BE
0ADE
09C7
04E0
1DEF
0E0B
0264
143A
7FFF
2EC1
0D70
11D4
10C6
22A4
1280
04BB
20A6
1826
09E8
154C
4AC8
5462
1DA7
04B2
6F12
7005
6B56
7548
76C0
71E8
70B2
62A9
6ED8
728B
6876
6330
67BD
6BF6
7418
7050
690F
6ACF
6C87
69A5
6A62
70D0
7380
7624
7FFF
66F5
74FD
638D
6F6A
6D9A
6DE7
6857
0C9D
F575
F27D
476C
F279
D9A3
2BDD
CD1F
E7E0
54B6
CC61
0CD3
3E37
DC53
012C
E3B8
0A02
2854
1D5E
2A89
E16E
FFE0
C2F6
3478
3635
0361
3D1F
E5CD
F4E8
D94C
EAA4
387B
2812
C52D
F5C5
180D
F4BA
E4D1
3F2A
D2D1
36C6
1A9F
42B5
F8B7
1D9D
2C06
34B8
2825
0F9C
16F7
EF73
E3B2
F10E
D64C
2892
18AB
67EE
5F9A
25E2
296F
D8E1
19E9
C7D3
1B23
C4BC
1C36
E371
E8A2
EDD1
DA02
2F81
E6CA
09DF
EC49
02A7
21EC
F335
171F
1124
17CC
CFC1
39A8
0C0C
E52A
2AD0
1A19
1D4F
00DA
3622
ED69
0252
C662
02E4
015D
F239
F378
0117
5314
B857
2319
247B
DB16
22E6
E044
415C
2F1D
AA38
2193
07A4
E46E
0C07
F7E8
1FDA
C7A1
F251
34E2
E661
28D4
E495
08AB
1ACA
1249
CD5E
47BC
01CC
FA4C
0DEB
F926
3353
EAC8
26CB
DFF3
1D34
3266
E876
F0EF
F017
0CCD
D805
F4CF
379B
0F2C
2972
6D99
1ACD
1933
FC70
E637
03E2
BCED
E059
BEBC
C2C7
E88F
2187
E623
DF80
FE36
0520
D4CC
D67F
D429
C3AE
EA8F
CBAA
AF7F
08DF
1330
CF77
F464
2BC9
EAF3
B9F7
C1D8
4952
0C6F
F75E
DFE4
DCAE
10F2
39AE
ECA0
F506
4CE8
ED52
D2A2
107B
57C7
AD58
BCBA
2CC0
F83A
E70D
D886
19E1
25DC
1F05
0E7D
C7A0
F0CF
7828
3272
13BB
17E2
0AEA
1246
B132
1D47
DB0D
1300
4B42
0279
0F7D
5549
EF40
3373
2FB8
D0E4
EBCB
BFF8
FACB
E012
E8C0
06ED
B570
4F52
326E
275A
54A6
EF34
08B1
208C
3FA4
C4DE
CE0B
39E4
EFD6
D84A
1006
F321
1CF8
EEEF
30EB
1226
492F
570A
E813
53E3
2752
1558
F8F1
0154
F23F
0CBC
2D49
19B1
5F5E
F962
F9C1
194A
F626
EBFD
D05E
1E45
3057
EE89
1472
5111
1A75
FD33
F3E8
953E
CA23
FEBD
1C44
1548
FC5C
1972
F5B0
141D
B657
DEE6
1D82
E3F4
EC1D
195E
B179
0F91
E097
0C2E
05B5
238E
F6AF
12C2
EC00
F228
C4D4
0CE2
F1B3
FA36
BEAD
4C6A
0FCE
096A
DD8D
DB61
A518
D96B
0D73
186B
CCB7
C086
EB04
D26B
196D
EB53
E93A
E86F
C265
C46C
DF2C
BF83
CDE8
E8EA
A804
CC4A
E29E
EF2B
FFEC
F217
E91B
E081
C189
C271
FA14
C7BA
C652
E9F3
DADF
CC42
E56B
1A56
F306
EE48
033C
F115
176D
DF2C
F0D9
E647
6EA2
3037
079C
0C8E
C6A8
CF13
F45D
694D
FC7B
18E7
F0A3
06AD
0302
1CFD
273A
C838
4CDB
EE5E
AC51
6987
0B7B
AE11
40F5
19B9
F727
4136
1C24
0C19
6203
2853
439F
072A
2B7D
56FA
CD0D
17E9
080A
C992
08A4
F151
14EB
41F3
2F94
1A7E
4281
1B34
F04F
DE02
BE29
1156
2170
1A16
B248
AFE2
07CD
0F44
B679
0E57
BAF5
EBDE
F767
F197
327E
2E96
F262
D2B2
BC7B
09FE
1764
1CAD
FB93
B0D3
F061
C463
1AFE
E57B
DFB2
10C8
10F2
8001
3249
2DF8
B337
0132
FF50
CAF1
0006
1C37
D29E
2838
C0B8
24DD
2868
FBA6
B6ED
B8F9
C637
E969
F22C
B591
F654
F915
24BB
027B
49F6
6DED
D9DE
317E
1058
EE8B
146C
DE1B
2281
CC85
C4C8
EDE5
4564
0C91
F7CF
DD8D
FBD3
171F
2817
4F4E
EDF0
EB14
E829
FA7B
32A4
3514
3C99
06F1
3528
F00C
13BE
4A45
1D14
1A55
1510
5E7C
098B
F290
5582
300A
D67D
174C
1B4D
55B9
37B3
FE0E
3C03
2C1E
1C53
18BE
5F8C
0399
528A
3E24
D500
0AD7
0A67
FD21
57B5
3394
F68D
2D1B
33A2
7FFF
1778
2336
101F
F50E
5638
3B31
2783
C52D
DBD2
3F59
7FFF
AAEA
E9CA
2DB0
2F88
2746
1242
08F8
BC33
BC33
B1A4
DAEF
F421
0627
F32A
285A
D1F8
E0E2
C862
BB6A
1058
D660
F0A0
C9BC
259A
F163
C7A1
DC4E
18F5
A9D0
F3BA
0A5D
48D5
AA48
16B1
E087
0E3C
F5B5
5A04
CA8A
16F1
E230
082A
062C
ED3A
8001
38D8
FF0D
D460
476B
271B
3E65
2B80
2D01
4B2D
3FBE
44FC
4563
4DC3
2CB0
31AB
47A2
62FD
3AFD
36C8
4666
6272
419D
472F
2BBD
35D3
425B
456F
5F70
482F
2AEE
2639
70D5
3C91
1F36
3EAD
2DD9
7FFF
29F8
60F1
2D68
5AF0
7726
6645
3D4E
20A2
3F1D
3B28
6B04
47AC
4354
30C6
70A0
7877
7245
7B2F
7CD6
6A47
733A
76F1
7BAD
6446
7831
736F
69B9
729B
6F37
7515
74A9
67DC
6FD9
7FFF
6C91
724F
7D98
76D3
660F
79F2
6988
6C82
6D52
783B
7CB2
7F0B
67D3
7177
785E
6F44
7264
5A66
77D6
75B7
79F7
7C59
6754
6E2B
73BF
6B9D
7374
6FC6
E58B
DB85
10B2
D548
0F73
E671
0075
E42F
E93F
07D2
F5FE
1467
FA7F
9E2E
F8CF
0383
B311
573E
CC51
EBF3
122E
E8B1
E3E4
33E7
EA54
FB30
BD21
0120
03CF
F869
0CBE
1204
D0B2
F9E9
1A11
06B8
EBD5
0A68
CE3F
FC9E
DF1A
E7C7
173E
3A9B
148C
376E
F665
09E6
F9A9
1362
EA49
1A4E
E03B
DDE3
E405
2E8D
15A4
1915
E337
DD44
00A0
C640
0AA8
FDF6
0658
156C
4D0B
D50C
F888
0402
1C07
F105
22C3
EF0A
ECAD
E53B
1497
E0C6
1582
14BA
CA4F
064C
C839
26CC
E608
49CC
EA91
43EB
48EC
F22C
0163
09AA
F1C5
E992
1C11
1E5A
28BF
FB95
1262
D82D
1C0A
D67B
0DD9
0F0C
16D2
DD05
DF27
F9AD
2F5F
148F
20C7
F5B3
FF5B
DC0A
127B
26F1
F445
4DE6
E3D1
3BFA
E4FC
2C8A
0250
C493
0BDF
00AF
0790
4151
2641
E9AB
F2FA
22DE
FA24
FD1F
1B8C
3255
2ACE
E160
1E32
D404
F6A9
B004
F032
0737
0E81
F2ED
122F
0DFB
FDA1
F5AB
1552
2716
3643
13B5
FE2F
D115
0E19
0197
F706
1B68
110E
FB88
D9F1
4413
0AC3
E072
E47B
1A6F
2D00
D95F
0CDE
E858
243D
1DF9
1AC0
CE3C
052D
13C1
EB16
06B8
F81B
F8F8
2262
EF74
1800
C1D0
3B18
0319
E478
CFE5
6182
C617
202A
29D9
20BF
BF27
EDEE
D71C
1F92
DE87
5597
F856
EEEB
152E
66B0
FE2C
E805
E86D
CB59
E806
26E5
AD3F
0F54
0D9D
E1D1
106F
23AB
FFF9
EABF
013F
F3C3
00A7
14DB
24C8
4FE8
0B27
0E9D
EE6B
E100
BE69
DF9E
0507
E017
FE20
0C37
E30C
CE36
F720
DEDC
3919
F732
F37F
EB44
1049
F2FB
1C0E
D62F
1382
05AC
D567
00D0
D9C4
0044
E63F
C944
0754
C4BD
F231
FA80
AFEB
EBC1
F963
F7D9
353F
FD5B
0294
0520
193A
F560
0895
12D6
D99A
D638
2AD9
DD44
F604
0ED4
E7D3
F8B4
F605
D285
17FD
1A2E
1D3D
2E5C
DDAA
A7B3
0576
016C
FEA2
35E5
B576
DE0A
28F3
DF6D
F65F
F07D
0382
2EAD
C6CD
C5D3
DF26
0DE5
FE9E
B068
E5A3
23E6
F39A
163D
0109
E6C8
0E32
E6AA
EDB8
B698
156C
E59C
FA66
0EB8
11DF
FF9E
D201
2FCF
BBBA
DB69
19C0
FA3C
C1C9
1700
3D6F
D6BD
FE72
FC57
E641
206F
DAD7
20A7
01A1
17AC
48BA
FE8B
F375
F8F7
0E58
1C03
FE89
E69C
EB6A
EE9E
EC78
E6AB
EBBE
F898
E8DF
1483
E23B
FB05
0D1B
38A5
1054
F161
0687
ECA1
EDB1
F940
FF9C
3117
D6E2
CC07
1CBB
13D5
D894
DDA4
D3B1
159A
0C17
F593
E295
4BF0
4271
29E0
D678
E7B5
CD2A
DFCA
175E
1F6F
3406
1DAC
1794
35D5
0B38
1A9C
28AB
3897
D330
EA68
1563
93AC
3FFB
1E3E
267B
B184
F944
F4ED
D7BA
F6A7
E517
CF4B
E257
FD3E
C1A6
F590
1A97
FD26
E27D
2E3C
F2BB
1331
2794
02E5
D3A0
3869
41A5
FCE6
0323
E671
0A79
F5F7
F5F1
43DC
C488
DA3C
DA40
3380
DA54
B5CE
F19C
CBEE
298F
263D
F390
DB26
3CFC
1244
F128
F595
B3A2
1D4B
0ED2
E14F
D19C
0502
0EFA
3F25
F8D6
3920
E57B
1D6E
C72E
C1BD
EEAB
20E1
0BA2
E61B
1019
56C3
0DB1
07C4
FAB5
2732
1BCD
2766
28AC
2042
DD51
CF99
F67F
E014
CB17
E9B3
D8DA
E04D
0BBB
D854
E181
E44F
0FBD
B722
0580
21D3
2977
07AB
1B64
4B95
FFDC
E388
270A
EF7E
F6A6
1950
CDF7
0BF4
D7BB
1EBD
376E
FD18
C2C8
D1C8
1EA0
F768
AA4F
3433
1DD7
3717
E80B
25C7
EE38
2058
1B63
2C2E
047C
1386
CB17
D2AE
E9E1
BBED
F3BF
EE89
1890
187E
E37A
1438
1196
2793
EBC8
AB41
DDE5
BE55
1497
0844
BDEC
FCB4
E0AD
E5FE
9A01
0DE7
1C16
0F73
E657
3766
E2A4
EAB9
2E15
262D
D335
CBA7
39DC
ED89
E3B3
FE37
A9FD
0C96
E08A
094F
3733
D47C
0722
D482
1FC0
0852
BFA1
D9B3
02FF
0C72
DEB7
0D9C
C5DD
06BF
C415
F18A
EEC3
CE33
EE26
E9B7
3461
0E08
2594
1DBE
F40A
262B
EF22
1381
E5A7
E2FF
F26C
F708
2FE5
EE25
DFBF
D321
1604
B4C1
E447
3999
F5B1
DC31
1342
CEB0
BEA9
F71D
FD58
46C1
F280
1C76
1F17
071C
2444
39F9
1688
E00B
F902
10BC
C35E
1C0C
16FE
E2FC
0BE1
EBA4
E69D
4B21
F548
B4AA
14AC
16C1
E7AE
F61D
C018
5939
028F
F005
BE78
EECB
DCA4
E848
29C4
F06E
07A0
E186
E8EC
BBDE
FDB1
08E7
FBD9
175E
21D8
E9AE
F97E
D805
3725
DF60
0167
1C0B
1652
2A35
0DD0
E5FA
0026
CD0E
EBD7
5026
0389
2A42
435E
3A46
BF4E
4674
2177
DCE7
D661
EB5E
D5BF
CD56
EF31
F52B
FDF3
FA17
1AD3
EF90
F124
EA03
E149
335B
E5C7
29C1
F2DA
EDBD
1420
12C5
D263
F3BA
C1AB
F855
1942
DE40
20B2
F361
F195
09C3
FF22
04BE
FE05
B743
2097
B028
ECA8
0E04
EDC8
FED1
2E41
E579
1C1B
0E3B
F43A
3153
CAA8
DB84
1E59
D07A
BD39
02B7
F766
F282
129D
F26F
1272
D207
F59B
2E4C
19C5
21A5
DB83
419B
03AF
2225
F501
F626
116B
2F60
D941
5459
FF15
FC6B
F956
2EAD
B9F7
F09C
FA79
10BA
21F3
17B1
D504
FB88
B71A
B6AA
0E41
2AB1
04A7
0800
B760
3450
B102
29A5
D4ED
0A5D
200F
D301
1C78
17F2
1336
20CC
FEE5
132E
0350
C5F5
0DBB
4EF6
1A29
E109
E07E
0AF8
C6FA
432F
0720
D4CB
E5D0
2BE9
0D27
C353
0EBB
ECF7
FA78
D27C
FC24
EB15
25F1
08E7
0179
10DA
F232
DCFB
FE48
AB3F
E765
F146
B45F
EBAF
2910
C4A2
F1C8
4EE4
1A79
1539
D42D
0570
116F
F4BC
0EED
F0EC
31B9
DE4E
E934
0EDB
232C
FC03
03F3
BFB3
F88B
F3C0
EEF6
1EE7
0ED2
F920
3716
CD43
F2FA
1AB6
F2C5
F762
05BD
1313
BCE2
1571
E063
FA9C
E615
D2CC
EF44
F117
3BE0
2482
E7A9
E232
E351
0963
E2ED
1A24
0F69
2000
E313
17A1
08C7
DAB6
F0B3
F6CF
130C
10AD
4C53
117E
02A2
253E
F70F
18E0
DEEA
1494
34BD
F9D8
0C23
27C4
F31A
E41A
F23E
E7CA
F5DF
E003
D3FC
DAA8
04F1
C647
D5A2
D425
E077
FC48
B2CE
0251
1F30
F390
2AD3
B440
16BC
1878
DC1D
1CED
BE3D
15F2
B099
0E58
EC60
F4CA
1E37
05ED
BC7E
1076
DB0B
EFF8
3435
E28E
0CCE
BCC6
4E12
DD8A
2B9E
FE37
D787
F3EE
F398
3509
E942
F714
DA4C
3B23
FD63
E6D8
E4E6
D55E
F92C
3797
0920
C90F
0EA2
F5B7
C51A
1A5C
166C
0562
1AA1
F05C
ECDB
17CC
2982
01AC
F9B7
D7C7
FEC6
1E17
038E
0F52
0478
E56D
0AD3
D030
228E
1DEA
055A
FC5A
14F9
152B
F5BA
C846
2FE2
1811
2405
E527
FCE8
FFFC
F7F7
05D9
DBA8
FBB7
F87C
3F8F
F35D
51C2
0C7D
F7DC
EDB0
4C27
21EF
0F63
EBEF
0206
0B7B
1761
23BA
1BB3
ED8A
CB34
05A7
10EC
0FCB
EE22
E2FB
12F8
E4FA
2927
E81B
45CD
1054
1CC9
D959
0769
1D65
C929
13A8
1D64
03A6
E38B
E514
8F69
F930
081E
E12E
02DA
E641
10B9
05F5
F2ED
EFDE
D28F
150F
31C3
DECB
A37D
E587
24D9
B008
12F9
FCB3
D8B9
0C06
17C1
11D1
E57F
1013
04CC
00B8
F01F
E707
ACF4
F3B8
D038
0036
F992
FBEB
2284
F77D
FE0A
62FE
FA65
04E8
1972
0C51
0B36
0AF7
36A6
FF38
DC9E
F520
1B39
E321
7FFF
7262
9471
CBF1
EF67
1DA1
1E6A
FD86
D628
E6E6
2617
0075
D78E
DCC4
54E2
1E4C
F465
0266
E4D3
1415
1F7F
EF0E
CF8A
2526
C462
0CFB
B2CB
19F7
2C35
2777
04A1
F9AE
F1BD
14F8
FDBC
D691
00A4
E83B
ED93
F0CA
ACE3
0B49
DF6F
14BF
CF1B
1FC8
05D5
1B52
4D88
D043
2339
2FB6
DB5E
DC54
3CEA
222E
2E1A
CA5A
FE35
CE2F
ADBE
0BB7
CF90
0E4B
5505
D612
ED2E
12EA
F85B
497E
FE45
08F1
200F
E147
D2C7
D624
C3A8
0B29
F873
01B5
FF6C
FF5B
F519
26E2
33CE
3BA4
F0DC
02A3
1DF6
C540
DF18
3155
D48F
0D92
17CF
EF17
0188
3224
F112
D9BD
F8CB
4DA8
FCB9
08BC
3DB0
255F
DECD
EA5E
0045
302F
1EC4
4F62
FC4E
54F6
EF5D
0162
E6B3
E102
258E
04DD
02DC
FAC7
1BAB
24E3
1F57
F59C
DDF5
2A6D
30B7
2A0E
1774
FBE1
BE31
EC70
FD2A
0BF5
18D4
EE97
E78B
0132
0D46
ED9F
0F97
1029
ED6E
F6E3
EFD5
ACCD
EA76
2996
4222
F8E7
BCC0
DEC5
C69A
DC41
F806
2B8B
CD08
C042
147B
CE82
155A
1FF1
4621
10CE
014F
D4EE
1570
7031
2FDB
B3FB
FB20
15D6
2E3A
E41C
DB02
F265
17FB
EF3E
13BC
2567
FFAF
E84B
0FAE
FB96
518E
DBB9
D0DC
C764
B9E6
1AFB
DEF8
F8A8
E1A3
27D9
47C7
1A1E
F03D
2C09
212F
10AA
C67F
F063
DFC7
1F96
5260
F12E
F601
C782
D2FB
3749
0032
14EF
FB0A
E162
2FE1
DB2C
CD27
3010
D888
AB6D
010C
155E
0D27
CEF4
3E41
EA35
DBAF
1556
EAC8
2531
31BE
EA5B
DB66
0357
141D
0A96
27F4
E0D3
00E4
CB80
23EF
072F
F659
1AAF
F1D6
1163
03EC
FDF6
0A4E
0154
F812
ED67
D9D6
0933
06E3
EA6D
CF49
161A
4A1D
43C4
CF61
FA18
CF47
F318
F424
57DD
E0F0
FFE1
F5E6
08F6
F75B
0A65
EA4C
21CA
57A2
FA43
E085
F4D5
14A0
3C63
0563
13DB
ED01
C607
FC1C
2B25
2EBD
E06D
0EA5
0C55
FFF5
DE3F
F04B
D02E
0C24
015A
CC49
FC2F
F625
A277
431C
18E8
E8FD
EFC7
3E4D
A9F7
EA7F
0752
0C08
3F89
36C4
10CD
FEC0
0576
3849
0183
C76A
DD3E
E63E
0DA1
D1DC
2095
09EF
D19B
0CA8
172D
D4A3
F423
FEB6
A12B
EDE4
A928
FA21
157A
C9C9
A248
04DC
DF59
CC09
BECE
06B1
07CC
02BF
12C9
F1E8
F8C6
FA67
B501
E64A
E94F
EED9
252B
2122
1413
E8D7
420A
4E50
D21A
D36E
F2B9
ED94
E5F0
2DD0
3529
ED58
1790
F32C
E3AC
FE13
2530
0F69
2DEA
3712
D220
26E5
2636
F583
127C
0E60
FFB0
D355
FDBE
1126
2440
1FF5
2213
39E1
EBD9
23FC
E44A
EA0F
55BE
EC04
10DA
E4AF
D095
ECAA
2EC1
2E5D
DF3D
C743
F156
0D4F
060D
1E92
F74D
C870
FB78
2888
DE32
09C5
1D78
16A5
E6CD
C72C
085E
04A5
170A
1C15
0139
E2A9
2762
EE2B
048A
D93A
02D7
BDC6
4117
FBFC
FECC
4013
00BA
E6AB
FA91
0ED0
19E9
E3F1
04F9
0A29
D9C1
D3A6
022F
CA23
EF66
E848
DB7D
2833
03DF
FA86
0416
156C
0460
09EF
D555
E31F
265B
3C5D
3B2A
0290
4917
F43E
3617
2C7E
2DBE
F49F
41D7
1169
60E5
B062
024D
FD7E
FF4D
DDE3
1A9B
FEF8
6151
4E5E
0025
671E
FD2E
7FFF
119D
DDD2
E0B1
0BDB
E596
FF26
379A
579E
1211
72C2
6F3C
F5F0
28DC
0684
0572
EDBA
5C6C
02C4
1F99
0C56
5C00
7FFF
F946
4FAD
5CEB
A35E
A7DA
4BC0
47FF
8F2E
8FC1
0DEF
E34F
3A8B
984F
F77B
C53B
9CA3
CC27
7FFF
AFE6
918D
24CE
5EFE
6384
0967
36FC
308E
805B
4DF0
1B80
0677
24A9
F739
B533
744E
5316
2BED
9C7E
46AF
6078
5162
C401
254E
045F
73E6
FF30
CF44
2B04
A256
0970
43E7
4916
53C3
4AA6
3448
2226
13FB
14B4
047A
19EE
1077
47AF
08AB
1B2F
19EE
100B
0B7B
0D91
5DC0
16AC
32D2
1C8A
13E3
0907
08AD
20C0
29B1
04A7
0E23
1F9E
1A67
15D9
7FFF
206A
187D
4ADB
2997
0D2A
31E2
2F56
108E
19E4
52C6
086E
2929
1022
278A
75ED
7270
7A93
735E
74FE
7755
6EDA
7B4E
78AF
701D
7429
7BD2
7964
7515
68D8
7547
6EAC
6BD7
69CC
72F3
6A26
7B13
7D8B
7395
793A
7507
739A
6FE9
702C
715E
766B
72DA
73F1
770D
76D1
7102
7FFF
7417
73CF
7471
6F25
72E1
7976
774B
75A3
6F32
7E61
7D6B
0992
F8B9
DEDD
15B8
0022
BFD5
1E23
12D6
E8C9
10DB
10B4
F207
0570
F9E2
EDD3
F080
2FF0
4959
1D30
208D
11FA
03E2
41C2
2571
2E36
F3B3
10C2
251B
0B68
1777
F554
FB0E
E3D4
D6CB
C3DE
D225
F0D6
F40A
FF1A
191C
C995
0BF9
04CB
F636
CEAC
F895
0DB5
F406
F455
CAB6
EB1E
0157
EF53
035F
E2FB
380E
33AE
161B
FCB8
ED96
02DE
13BD
3522
FC32
E446
0AD7
F757
0106
25B2
F6CE
F2FE
093A
0B1E
1716
1544
3409
1580
FAD7
01D1
D931
E9F2
F43B
DC5F
C2BE
DEDF
FA1D
F640
F28F
F32C
08F5
00B1
D6BA
F03F
D7BE
F11D
FE9F
D2A0
D57F
DCCF
E0EB
E7FF
07C8
F6AE
098D
EBFB
0155
3A35
0321
01A9
1DBF
C367
EF59
0539
EEE3
0AEF
FEE2
C4B5
10D3
1810
2808
FF0E
F769
0C6D
22C6
0C4B
25A9
1CC4
17F4
24CE
F881
F747
EA80
EEC3
169E
E7FF
D0EF
F03E
E8D1
F5E1
E5AF
CEB4
00EF
F2A6
1CFF
3040
D784
D2F6
F94B
F9B0
03F8
1320
0C62
E6F6
F9AC
0034
E808
0F26
E63B
E1AB
F1F0
DFCF
078A
178A
C22D
0402
CAE2
ED54
F632
E4B2
19A9
C9AA
E011
F455
F143
FAC8
F5BE
202D
14C7
0ACC
FE55
C220
D2EE
DE90
EB16
E9FB
0527
0ADF
1AB9
21D3
0CA5
114A
146C
2C39
FC71
05D5
1F6C
1296
2972
017E
F3D9
BAB7
CE84
FFBA
CEE1
FB31
FDEA
1245
0799
02E2
E448
D9FC
D326
E7ED
0B82
EC6D
FF2B
D9E2
D01B
2017
ED79
0287
FE84
E57D
FFEB
1BD0
1EA1
F38B
F292
FE2E
313E
1B01
F590
088F
03E1
137F
34E0
2A70
FF75
32A4
FE49
FBA6
1AD8
0A5E
244D
0B81
0889
FC36
0C32
EACD
0E97
4643
054E
2A5E
0476
EF98
3630
E65A
F407
0085
EF5F
211D
E375
1AAF
FFB9
028E
F1D7
F3D2
157E
FAE0
3489
1F5C
00B4
1623
FC74
0B26
EE7F
EAE7
E81F
0179
21F9
1644
13F0
262D
2F98
07F4
F486
E522
00D0
E43D
8001
F60D
FFD5
A7DE
F8BB
288E
F169
0DD9
07D3
2D37
0F3F
17C5
F8F9
F73B
0F72
1095
0E26
ECDC
4255
F4DA
2AE3
21F2
043B
FBB6
1521
D997
E07F
0A6E
0E23
217B
1849
D30D
F17C
2AB7
06AE
ECF9
1697
07B1
F9C2
03C8
F5DE
F153
0A67
05B0
FC1D
125D
0C8B
3DFD
16A4
F149
F182
F787
1A76
3AB7
21AA
089E
E021
FE5F
FB54
EC59
DC40
D6E4
F697
F75C
0713
08E5
FDDE
FEF7
E130
E921
10A1
F759
D3F4
C70A
133B
0D3F
F60D
0B59
0BF0
5D92
1952
1DF3
0A9F
0315
1E95
04AD
2844
11A8
0D94
F5EA
110C
2151
1106
47CD
1153
DE4C
08F1
00DB
E4F6
341C
F9F9
0493
1777
F90B
2EF6
0687
F4A3
E1C6
F09D
F93B
FA37
EAAA
E38C
E593
EC77
E2E3
E2DA
FDA5
322C
3856
2910
FCF9
034C
160C
0E18
FA46
F162
FDDE
E8F9
100C
2DB5
F9BB
F0A5
1AC5
272D
F5F5
2055
1E64
FCDB
2441
0974
FA08
1AE5
0B22
1696
19AD
2796
F15C
ECDC
315C
0F25
FDD6
E7F1
AB58
D13C
01D0
1329
E2B3
0D4D
0456
0048
1C37
F6F8
FB40
E1C0
0AE2
3F77
EA54
116C
2AAB
E99A
11AB
09F5
2814
F15B
37B4
ED86
EB2D
00F4
DF4D
1985
E3B8
167B
EB6E
09D2
34B3
2336
FD38
1A5A
1F38
1297
0842
162C
204E
03D5
FD62
FC24
CC28
F048
0347
F21E
0085
11FE
27AF
1D08
FBDA
EB40
F970
FC92
DDD6
E20C
EECA
03A3
E15C
16E1
05D2
EC5D
F0C2
F5D3
256A
2414
F757
FCB2
0347
D361
1590
42AA
1044
FE8C
F5A8
F96E
F251
E889
F55F
EDDE
D41F
F1B3
E2E2
ED16
1D57
FA63
FA26
01A0
0734
FBD0
0621
07BD
044B
23F0
1EEC
082A
03AA
032B
2853
FBA1
040A
E6E3
F6EB
0515
105A
0406
7FFF
080B
F50C
05B9
1062
14A7
21A5
0096
16BF
FCFE
28D2
0051
1339
1B2C
44D0
FF13
F5A9
1D89
4F36
0409
09CC
E2D4
07FC
0CFB
F34B
0D63
2B39
10BF
14FB
3B52
12CE
E60D
2342
1C80
0211
12F3
05F7
0FB0
1939
18F9
07AC
25DE
7FFF
A900
288C
0401
FF64
F2E0
D8A9
9090
4DE2
E029
E7D4
1263
F831
48BC
DF3F
303A
BE8F
D851
CEB4
117E
01B4
2B20
0357
AE19
F593
559C
1559
204E
125F
8001
E7D4
E730
2DF1
C7E9
F5EE
D5B3
E204
FDE7
DF32
2B79
D7C9
E184
185C
D0FB
3280
C11A
1F96
351A
FA60
F889
FBCD
FCD4
06A7
EF49
B0BB
BACB
29D1
1006
4ECF
0CC9
5052
E3F4
C2DA
E9D6
FD92
2770
3D59
2CC5
2363
2E40
21CD
33F8
2EF1
1F77
2ECD
297E
48CD
2215
2F11
3165
1A94
2A13
2335
1C38
2F34
595E
26AA
4566
29AC
3EDA
3629
7FFF
2F2F
29A7
323E
5360
3250
1B80
2642
4819
46BE
25AB
3E26
3E38
2135
5512
2CBC
23E7
318F
214B
2845
3A52
28E1
2ACA
2D57
3062
635A
2BD4
25EC
2516
493E
2001
36B1
2BB4
3C2A
24F4
255F
4E5C
309E
6BB6
73CC
78B3
7783
7BF8
75FF
7C60
77B6
7DC1
6A9D
6BA7
77E8
754B
7A2A
67E3
7410
7FFF
6DBE
73A7
7723
71E5
774E
437E
7A67
71B0
7D84
7828
6D19
6AF8
7B12
7354
7AC6
671E
7D7B
73D8
6B7F
5D29
7BCD
756B
6E74
55E8
7F37
78DB
6B8C
7B06
74FD
78F2
7D85
6155
75A3
75E8
627D
6F90
6A0E
6ACF
6C60
79AE
74BA
7BE0
764E
6EFD
6F74
7A09
6A57
1154
0273
1D79
FB26
D610
13A5
ED12
181C
EE40
1873
DBFF
AE3B
CF30
F28A
D57B
3CC5
D440
CF6E
F7A5
F729
E162
DD2C
D110
28C7
4AEB
E483
2A22
2ECB
FA57
E375
D17A
DA6C
F3D0
04D7
D805
D1BA
F69E
03C0
CC66
D761
F717
F32F
1AAC
23D0
1F96
F7B8
DDED
C0FD
FE02
3618
F42C
167F
F220
DC9E
270E
2727
183E
ED19
044D
152D
E507
DBF8
C0D1
37F8
2998
E039
0990
F3EA
185E
5D26
0841
FD03
04AA
E35E
001B
11ED
C422
AC79
F380
078E
29AC
ABF6
3B55
E8AD
F1D1
4C7B
04A1
E2E4
30FB
FFC9
E182
494F
037B
D9FE
F10A
21D9
18EB
FF2A
6AB2
15E6
BFD6
13F9
F9C5
DE88
43D0
E665
DDDE
B8F2
E0A5
1462
D525
2898
2CA0
177F
EC01
285A
E1C0
269A
DDA4
2FEC
E162
1BBA
CD54
0C9E
D86D
2F60
06BD
EF55
FD2D
01EA
182A
00B9
F331
D77A
0CC1
E199
EDB0
B6AA
15D0
2552
E839
EF53
214E
20AB
B839
2344
304C
CD8B
F6D6
151E
DFAD
2393
1221
1BD8
33B0
D9FB
F32F
0C8E
E623
1468
0155
1BAE
0774
F906
2F43
2CC2
0D16
AD0A
F707
22C9
0762
E29D
DC8C
EC47
10E6
F2E9
F85E
F9C5
F99F
EE01
E2BA
4631
E0FF
CBCE
FACA
D9FE
D41A
1D4B
F6B2
D60D
FFA0
374E
BA1E
0C97
A812
4EF7
10C8
20F4
D3B2
2E8F
219C
F649
1C84
DB85
DD90
011F
0761
D427
1FCA
03E4
0D67
0052
BCE2
F662
AE47
0C81
4067
F810
D999
07AA
EBF4
E78F
F8DD
2098
CEC9
FA66
4566
2489
1CFC
09D1
3922
F43C
F96C
0077
E7C5
F736
F475
2CF3
09D7
C4B1
DEBD
2A00
C7DF
21DB
F6CC
E0F4
1A1A
1FE2
B7C3
E4F2
E03B
392F
E7F4
1CE8
F9DD
0D59
2C40
0EB2
F966
C4B7
08F3
0AD7
E8C8
0202
F4DB
2483
1424
D685
D1D9
D09E
F979
1952
EFEE
EF5D
CF4C
E7BB
EA4E
37EC
EEC4
EA33
0BF2
ECD1
0635
0609
0EB7
F720
471E
BFEA
CB04
E2C4
F1F5
1355
E323
EB7D
F401
00EF
28EC
B2E1
07E0
3DFB
0D2D
F69D
FDED
EF94
CA4A
F13D
E6BF
3321
E117
F1D8
C906
F6AE
0DF2
EB50
E29A
EDFA
C82C
E3FD
CA56
FB8C
E011
14E0
D0A2
1ECB
D9B9
1B08
DB04
50B8
E136
D1FF
B443
F756
BCED
04D8
D3BA
1FEA
3FE2
EDDA
F2BD
E8DD
C413
0991
DA39
3B23
3015
E7DC
24B1
D1D9
D434
505D
D3F6
04C9
3B46
385A
F615
1AC4
D92F
27DA
1016
4429
FF33
0B71
0304
265A
1149
F7CE
09FA
F9C5
59A6
4764
07C9
3D0F
D575
FD32
FEC5
CB67
D5E0
2EF9
B5E2
00CB
2076
1C2C
0C46
FAE5
2EDF
0AE3
22B2
0B35
FCC8
F359
D25F
0083
328B
1C4B
F142
E48E
F278
C896
06D1
E165
08BC
CD11
2EA5
CC75
DA0D
33C1
0DA6
06E6
E4EA
E627
EFFA
284C
E21D
0704
C70E
3428
E61C
2789
05D9
032A
0BE3
F529
F8E1
1951
E0D7
DDD4
E967
F289
282D
2720
A903
F239
2FD7
CC97
2E4F
B932
CF39
F45F
F619
C0D2
F7E3
0398
00DA
E474
0B04
03AF
1A8E
0E6D
EDA2
D7B6
D512
23DE
04AF
0A9B
CB6E
F62A
0BE4
BAA7
2071
EE25
E777
2BAB
CC49
B3A0
0EEB
DA54
BD19
F2CC
0661
2BA1
079E
170C
27E6
10E3
1374
3B59
3404
23B1
F33A
4111
0671
C426
E19A
0ADE
017F
52A8
03A6
F963
21DB
E146
0E33
179C
154E
0867
2D4D
21A6
F0BA
F517
237E
BEBB
1845
F63A
0A3F
08B5
EB59
1ABC
F61C
FCBF
EE79
0610
E73F
25A4
13AB
2686
D262
3F5E
B60C
574A
E5A6
F35B
1515
2846
BF5B
2534
F89C
D859
E765
EFE7
39C8
EEF1
08D8
1791
0A33
E839
FD2E
07B4
06E9
E166
F561
D2C6
099E
3E6C
2345
17BE
FDB2
17BC
2112
4B35
B807
B724
DE56
FF80
9BD5
CB6D
F161
E8E9
652F
259E
F7AD
D2CB
C550
DB0B
27B6
384A
3F1F
0FDD
E588
CB29
DD1D
10A7
00FB
FED7
31D0
2A34
1E3F
C570
0249
08EB
EEBD
D0DA
366A
F671
3BA8
168E
3B1E
F7D7
F4A4
0CDE
F94E
1301
FB27
2A20
272C
29D2
2970
2114
1FFC
EB40
E8C6
F944
0CB1
E189
7976
F047
DBF1
4007
0CEC
B1DF
D3EB
DD16
1096
CCC9
0DBA
D460
0377
5533
C3F8
FDA3
D128
2B21
0327
F3EB
2B1B
2C8A
F9FB
FFBD
014B
1983
ED8E
E951
9E65
3238
E6C1
1B40
C361
1221
14B4
E20A
DA41
D387
2664
358C
EE84
30F8
16C7
106D
2DBF
D115
FD02
EEA3
BA4C
BB6D
CD3C
FE70
F6D3
E0DD
99D3
2038
F54B
DD5A
E62C
F56D
21B9
E50E
2523
FE23
0AD0
247F
3E4E
0B33
0426
348E
3542
F8DF
0C3C
2FF8
EBEA
E827
F562
0648
1F75
19EF
266C
259E
E794
2DF5
DB51
B0CC
2770
0494
092C
9693
F052
AAE6
0C92
1477
14B6
D91B
5437
D2BF
259C
DE40
021A
FE52
1091
CECF
CF9B
E391
1AFF
26E3
198B
36B2
0D96
CDB6
65B4
0B70
3C14
1F8B
122E
18C3
D4C4
FE17
C016
CE50
D20E
EC39
11C0
084B
B02E
F67A
0D5E
0890
0CE3
E2D8
004D
D66D
0EC9
12A2
DC98
1D53
1A8B
D31D
2872
E60C
F0D9
CE1B
BEDF
48FE
1D31
2D91
FBE2
D670
003F
1ED2
E514
DFC9
0550
19F9
F482
FCCE
FEC1
00A8
E8F3
1736
C94F
1155
0551
214C
1047
0CF9
E2B1
2CF9
D537
16B7
12EB
2785
BB6C
CCD2
32B7
16DF
D04B
F474
F284
CF07
DE17
C959
DBA1
4111
EBAD
1EDD
282D
F68E
D535
E980
30FB
33AD
E313
CA4E
FBE4
D613
084B
2E2E
00CC
E641
D716
44CC
D8F3
18CD
3077
FBDD
1118
BFE5
1C22
A9A7
1AB7
D2AE
DF35
E0CD
0C6F
CD1D
3A4B
0F1D
E68E
E5F6
EEE0
CA3B
DE44
FA03
02F2
FE77
E9DF
FD5A
169E
E4B3
EDAA
D0E0
1A20
FAA8
0567
FA52
CBE4
3241
1512
F8F0
FC7A
E651
EAFA
CE38
FFE3
E566
1C03
0F4F
EC0C
E73C
E4A8
05A5
25DD
DFC4
DAA6
E9A9
4BC4
EE85
45F6
18E5
1738
1273
0AE4
F0CD
0503
2542
F5CD
D6FF
E772
E297
ED49
3A7B
DD9C
F550
15E5
0DCA
F83A
FACD
2CFF
062D
FA31
497E
3228
F63D
007F
C466
D9BB
CD52
EC39
D0C0
01FB
D194
4425
4714
FE0D
114F
04E2
1A17
2191
ECF0
3BF5
E45B
EBB2
01C7
EE4D
E705
FDF6
0B9C
F4A7
0629
3C6E
DFFC
22D7
F02A
1742
4696
1C8B
BFF7
C7EC
F193
15EB
1430
1167
B5C9
4539
DBF7
C54E
FB00
ED76
AC27
4018
2AB2
0458
D1DA
AF92
1DE9
CB8E
E716
1FB1
06FA
298A
F3A4
ECFD
1F54
11FA
0AAA
0FAF
EF9F
F1D9
2868
3824
0347
343C
D7B4
F83E
2479
DC12
E1BC
0E52
1E3E
CDAC
39A9
5029
4D0C
2A21
40B9
1D00
DE99
AD14
E312
1D65
C2E5
2D20
F134
0C57
CA33
21F7
1FFC
29C7
304C
D4A1
387E
DF6A
0F7C
F48B
F4BD
2667
F64B
CA19
3125
1CE1
C803
304D
1B26
FB72
0DA0
F2BC
FF16
279B
CD0A
CD8A
0BE8
039E
15D3
39F2
12D0
E1BC
3B0A
E829
D679
FE29
B1E4
EB3F
F4F6
2454
1630
0F74
1BC8
FF5C
44BC
02B7
0C58
57A0
F0E5
0BDB
2D47
CAC3
3268
D094
3390
23B2
C388
FA7C
FB87
ED3B
1E75
F3AB
F867
0F74
EC07
F72D
00AE
E7C0
C094
EEAA
F3ED
F88F
F643
2DE9
1920
D1B7
E583
0C54
2182
0E24
EEBC
F982
E73E
183B
00B6
06E4
F49E
E5DB
DDDD
8849
1335
EF7A
DDBD
113F
E8E4
094C
C2C7
076D
0C71
EE94
F96F
06B5
027A
FF41
04FC
0887
0214
032A
F746
F194
F929
064F
106D
AE90
0CDF
B715
1435
D1C8
0C1E
1581
36ED
FFF2
BD80
F68F
C011
1918
33F7
27EC
F6FD
4658
2022
E079
0996
10D6
FD86
34D2
1042
ED5C
7098
DADB
F1C2
F463
FD2F
B641
FE31
1C02
D70C
0696
DF7C
D59D
F76E
F948
CB77
1161
C218
E304
11B4
F565
DC2C
BD36
F0D0
0A16
05D0
1750
16A3
1F68
FDFD
F9FB
3406
E49E
D2C5
A2E9
249A
25EE
0EE6
2EC9
E2A3
5784
31E4
2151
1F33
060C
29CE
2394
0872
B954
F3C7
4735
EB67
0F91
2DD4
E1ED
1B32
2454
193D
01F7
0EF0
FB99
1F36
FADA
F28A
F1BD
06BC
3D7C
E320
057D
2094
C608
108E
0033
34B4
353A
0FE1
148B
ACCD
1D09
D167
09EB
0258
DB31
1F4B
071F
A13C
E662
2B80
108A
E5A3
F2E3
18C6
FFF7
5513
EEB1
53D5
35D1
DEC5
0EBA
DE2B
48A6
FC20
E414
E613
2A2F
2854
D451
DF5C
F04D
EA35
1649
13EB
3E56
01AC
E2EF
D3CB
FDC2
F0B5
FD6F
179C
F220
C2EF
E717
E327
229F
02CE
C966
442B
3464
F4B8
FABF
1F1C
E6D7
D9FC
68C1
CF2F
050B
1C1B
28AA
609C
12F8
FCB2
F39B
EFC6
197E
03E9
BE18
0647
101E
0FE1
EA85
B379
0C4B
F347
18E0
5BF0
D80B
229B
ECEF
0FEC
F49C
F506
4A64
3C03
11BB
0EAA
FE9C
03A8
0BB5
B9FA
DD1D
00A6
F551
E426
586B
37C5
F2F7
A6C0
467D
B9FC
1648
E0B1
2F6F
1104
2D86
C82E
2194
124C
0931
074A
1580
1AFC
F1D9
35CC
0198
4098
2EC3
CEE4
1C26
0575
2325
DD4B
F62F
34F3
1293
39F2
DC1A
09DF
FEA1
C520
EB8A
CC9C
FFDA
0EFC
B526
A80E
D74B
EE77
2CB6
40B5
EE26
1D3D
1BE7
F864
E456
DBCE
E355
0085
CD85
D478
0498
F3B2
F9CB
BFFA
140F
04E6
139D
FEE5
0308
BEFE
DA01
15B8
0841
FCDF
D39F
12A7
E8C6
F54A
FADE
FD84
E6C7
191A
D70E
C959
BF56
164F
20F1
DCDA
C747
21F6
F36E
34AA
DFD9
3F22
B4BD
18E2
FD78
EA1B
CC4C
0B34
FB1C
D271
03C3
0363
D2CA
A543
F6CE
1336
D8BA
22F7
F6B1
2A3B
65A0
06C0
E6EE
E159
36F4
EAC8
05C5
D8F7
3139
04B4
2A9A
0813
2D83
E321
CC5C
EDD5
142E
14E7
24D4
04EE
F675
C7A6
966E
0C67
EC50
14D0
F85A
BF69
DC5E
04EB
2AEF
ED4A
D6A9
D9F8
EB7E
B930
1823
E88C
FFC2
3271
1CDB
028F
E44C
B3A3
F04E
19B0
E631
3F87
04AC
0151
3D9A
D777
CC04
EE57
0D97
ACD0
D490
D30E
4FF1
4A76
F058
177A
FFAF
D97C
C4FE
3CDD
CAD0
D52F
DE29
AE48
38CA
D3B7
3E02
08F1
5CA7
A3E6
07CA
08D3
19C2
1358
C98E
EE01
1D4D
0792
3B25
450E
F8C9
EFE2
FE0C
1F96
016A
CF6C
29B0
3193
49B1
27C2
1462
F0C2
19D0
E9BB
1192
DAD9
2D49
EA7D
13ED
E95F
40AF
FF46
EB73
0592
152C
CCB0
0BDB
2EB3
F261
1953
293D
A994
271B
E078
14AA
2865
0D62
D36A
3E60
E684
F818
46C9
4534
1091
CE92
E453
2F25
D312
D8DE
1AAB
F42F
D79A
07AC
13D1
0582
DF6F
C537
E6BE
0660
044F
E1D7
19C0
C346
66E3
EA5C
2FD9
C3E0
5111
FA56
2725
E701
ECD3
FB10
F744
F81F
EC36
0EEA
C10C
DA6A
0B3F
2338
E7A3
1851
D845
11D4
0263
E46C
D63D
CA2D
CA81
D33F
D473
01E7
0121
06E3
26BB
FB24
03BC
08B8
D50A
EBB9
E26B
D7D4
0BDB
CA52
1B63
FCD0
E991
3C1F
2531
C37E
12D2
FE62
DFAE
C43E
CD86
D13D
CF32
F0B0
469E
26D1
31D8
F509
ECA3
325C
F058
41F8
D295
F836
3C58
F80A
F0EE
2EF7
EF1E
C785
3999
2455
FA50
E9C5
06B4
FD73
0D2C
D319
E4FF
1BAA
129F
138C
CA6F
1844
144B
EE99
FBC7
3B54
B384
CB93
07DF
E7EC
0CCD
ACDD
53FB
17A0
EF9D
169D
10D1
3B16
FD14
05AA
D0C5
08D2
287A
F8B6
2E97
D667
FB11
062B
1D94
86B9
FEC2
F520
F76F
0C06
E037
F047
F9F4
F172
1DD5
2ACA
C9A9
20D9
ED28
F67A
D3AD
193B
075E
87FF
F995
FF28
2C16
FABB
323D
0D22
D422
E175
170F
011A
09AF
0195
FD0F
F301
E0D5
EA9F
30EB
B669
E7AD
28FE
23A6
0CCC
FCDA
1FEE
D54A
F8AA
BA28
DCF5
D547
0BE4
E1E0
F9B3
EC42
1220
9423
BEBC
4703
5633
D5C1
0AC5
5480
DC5D
E672
0693
03E4
0588
E138
E119
18EC
0204
FE68
14D6
01FF
F561
1D64
1133
5913
349D
F39D
FE5E
F48D
E7B2
F7DD
E569
2295
D58F
E21D
08CC
B32A
32BD
4297
2F0E
BED0
02DD
0EE5
2494
05A5
F2EC
F2D3
FA7B
05AC
EC81
10BC
0F74
FE97
F1C1
FDDD
DE82
CF4F
DD6E
006C
F87B
ECFE
02A4
DAB9
E4B1
EB46
EABC
2E9F
4107
FA81
F848
0009
0145
1DCC
0401
D0A3
0C9F
1398
269E
10CC
0BCD
EABD
2E83
F71F
E57F
0DE0
DA79
2864
D1EC
1F51
F4C7
0341
EA92
31C5
E4FE
C5B1
FBEA
D6F2
E973
01AE
EDF7
4ED3
BEAA
1076
DDCB
2647
0A62
3EEC
F4BF
C363
E594
BAFC
AA06
E62C
EA7A
2B52
E190
139E
0630
48E5
E57E
4C15
F108
F58F
0C2B
728B
417C
B4CD
0CEA
F4B1
F5F2
C9DB
FBD9
D5BB
3823
D57B
E72B
1809
0C75
061F
DBBF
07A2
0E62
2852
FC8C
0C26
E6CD
FF42
5F9D
0039
0D45
DEDA
DBBC
11FB
1DD1
1972
E4A3
1886
3F65
DDD4
F9FE
EE05
D10E
BFAE
079F
CC7D
AB74
32CF
FAE0
EC26
21D9
E841
1236
0D80
BECE
18B7
0841
F1F9
F6B5
E460
FB27
E470
EB48
F915
F7F4
F31E
EB4F
3631
F9D6
F635
E183
0E6A
F4FD
D6C0
141C
D0D1
362A
D7D2
045B
5447
3730
D8D9
F157
D9AA
1B4C
13CE
3266
0DAA
1156
BD29
04C7
4289
0C0A
0301
CC52
FA6C
F41F
F40B
C884
105E
E5E7
3763
DC9C
F7F8
E9CD
FFE0
E7FE
D4D0
CE62
F91D
2DB1
1EE5
1FCD
0EE0
DCA1
AF65
01E7
0B62
F72F
F703
F314
0029
978E
25BE
1790
E02A
F705
0F5C
CE00
288D
1232
1ECF
2626
1964
FDFD
1EF3
05EC
F622
2A12
EE52
F1E1
296E
292A
D433
0C24
242A
29C9
214B
0464
1331
1936
3F1B
0849
B8AD
13BF
1876
1C6E
0E7A
E010
0462
15D1
24A4
AE18
23DB
EE56
DA64
E9AC
E789
E7EA
B5F3
FD55
E01B
18DD
1E21
04C1
D093
D760
0114
1DA2
1476
D9A8
0A6B
1DB1
3C09
E2A9
0A97
1A23
FC92
06FC
D8FE
1265
E6DF
DE74
860D
F0FB
03F0
ED4D
E8B1
EC2E
02D1
2821
2553
03ED
FDF0
2C03
E01C
E0ED
056B
19E8
012D
EC8B
CAD2
3DCF
22AD
F77C
293E
07E8
FA46
EA4B
AF76
FEA9
01E9
F7F0
1D3E
D3CE
BE4D
D735
F860
0992
FE71
1C42
0D5E
FCDD
26BE
C21D
FEBA
22B4
F793
BF6A
1BCE
FC06
281A
04E7
FF59
1378
08B0
FAF9
FD59
DBEF
325D
1389
A89A
DE3D
2D86
1EA4
DB72
00C8
F054
0023
6752
10B5
12E8
FE2C
2594
CC32
0921
EA99
6008
0C7E
0CCE
1074
37E5
E862
2526
30BD
C6DC
F657
DBD2
FA7A
2A52
DF62
31B9
FC7F
22A0
F5F2
F89C
B08F
B862
0948
01DB
FC9A
FD89
39EE
33D6
E5BA
EEF3
1A14
0E57
F7E2
D14B
F830
E8E2
34F3
DF96
0161
3977
C8D6
E4BB
E66D
D13D
FD3B
FE99
0891
1CC7
0086
DA03
F591
FA77
E0C8
198E
133C
EDAA
F541
E72A
1615
D0EE
07C2
0688
1CF9
BBDE
FB01
12F4
06B8
FC65
FA0C
0F13
1A2F
3749
31B6
271B
EF90
D000
FD77
B488
2EB2
EFD6
46FE
000B
1162
1A47
28AB
D8ED
EDB9
14D5
12C0
4611
DD5D
E191
FA51
D695
D77B
35A6
102D
FA0B
29F8
DA64
C26D
1494
26DA
2703
F65C
4AC7
0D77
1706
D5CB
1498
B28E
E935
EA3C
BD2E
3BC9
0C45
05B9
1F1B
29B9
F9C3
65B4
04C2
E163
0319
08D3
04B3
F158
EBF6
FC3D
03EC
119F
4E9B
CDE7
FA4E
F243
242D
1EF3
F7A8
EA35
F203
27C3
08EF
B9A5
E96D
F5C2
2D69
D60F
1207
593F
0339
376F
E8C1
05F5
EB93
0AEC
E21A
F5DD
36F1
EB6E
0C57
15E0
18AD
FFB9
F43B
4A9E
0CF8
1895
0ABF
EBDB
F677
04BB
C89D
E5E4
270A
2B15
F405
07BA
E463
17E3
EC1C
0D03
C69C
4FBF
099D
F35A
AF02
CE23
044A
0D23
2005
FFAF
1B1F
DAC6
B3CB
0846
D9EF
11DD
1875
0FE1
3B2A
200C
E4F7
FC36
0732
E183
F8B4
22F8
E3EF
0C68
0625
F031
2577
E88E
1AF3
E90D
120E
3CC6
D5C6
094C
0BAE
D38F
489A
EA96
73A4
E9B0
D067
37E1
E836
07EC
06FF
2568
1816
DA80
C34B
BDBB
2076
CC86
361A
2CE4
07CC
DF3D
1D64
C9BF
D308
CC8F
16DD
07BF
2986
0935
FD05
0781
D205
FB32
0D00
E275
E0DC
D4B0
E896
E697
0AEF
D1AB
20E9
11D3
017B
3207
EA1A
FF39
B7D1
3521
142C
F874
2082
E8D4
D082
20FE
DD20
D195
0970
CE3B
EA5E
C05A
0A2A
E83B
E331
41BC
31BD
FCE6
2E72
2786
201C
FC3F
F0FE
1EF4
DB4C
DC9D
1365
DDD3
DFE2
2024
1580
F55E
FC0B
528E
275D
AB5C
F636
135A
14CF
11CC
0AF1
CC1C
038A
CED9
CFC4
0D95
09ED
E6D3
1593
5D19
E8FE
FDD2
FE13
3245
1AC1
104E
16F5
03BD
E5A9
0E13
416B
3E92
3B8E
45CE
C2F2
F5D7
F0BE
4807
22CF
18FC
CE2F
18F3
D104
0065
F91B
F3D8
AE48
4683
B9EB
F264
E962
CA78
C069
0DC8
21B5
0585
E6D5
CC43
05BF
FAB2
DE96
1AB7
0D90
CE35
FA3F
0A4C
07F5
E462
EB36
FA64
FED0
0F39
DCFF
06AB
0107
5E58
127A
EE82
BD93
D5E8
1703
E21A
EC74
1A9D
31F3
D5B7
2463
2F55
07E2
E5ED
5434
1803
1C41
EAFA
11CC
E827
26AD
0A0D
E7AA
B128
1BB4
E365
4081
36F0
A7D3
DE11
188A
3E2A
1956
D164
2319
EBE5
FBFC
0A3B
0FB6
CDB5
DC16
FAE8
296B
F271
FD80
D151
E683
C722
F56F
0ABC
E625
1243
CF02
0DC7
FE8D
02E4
0623
02DF
0954
FBBE
CF30
B39F
1970
FBBB
239A
0C6A
FF2B
4153
D37E
086D
FE22
38BC
2031
0AA6
F47A
CC72
008D
B513
F5A4
0D4E
00AC
F48C
237F
1CD5
ECBB
EF82
0C65
C9AF
FEDC
DA15
0715
1C59
EFBC
E942
057C
DDA8
008D
DA81
ED9A
C3D6
F49F
0CE2
00DC
64AB
179D
C4A4
00C9
FF71
DC6E
F267
1BC1
1999
FAC1
CE82
A70E
0408
C0CA
E84E
E8F0
3B12
08D4
D2B8
D6D9
C2F0
43C3
0075
0056
0263
19B3
C2EF
155B
F123
CA30
F503
DC56
E18F
F9DF
03B4
E7E1
EC31
F461
EFB7
36EE
E8B2
3769
2053
3DF5
F2F9
F87E
1554
1BF0
F2FB
F596
A4D9
012A
B19A
F8AD
FD0D
DE76
F1C0
3D3B
FB9A
0D8E
001A
F770
EF7B
E048
F775
E89A
E7E9
1070
034B
3467
E70E
08F9
05DF
075C
FCEE
1585
F19D
3555
CF73
07E1
F333
068B
ED25
F63F
EDD2
ECF0
FA86
3554
FEBB
DF9E
2C50
EBC7
07CA
1899
D9E5
2D72
00AB
E1DE
F127
36D6
F019
2DF2
F710
FE55
438D
610F
E5F2
FB0D
F853
1A02
E24F
02C5
E2CC
FA44
49A3
F85B
FF66
EC16
D089
F4C9
DA03
4F4E
D466
E8E9
FD8E
3497
1A82
0D8B
3A9A
178C
03C3
0E19
0993
E089
F354
DF9E
049C
1471
3DE6
C799
F463
272A
F4E8
F0D7
DCA6
410D
17F4
07A0
C3E3
CDA6
2BE8
1E87
E461
F6B8
EB64
2A15
D41D
E29E
CBD7
2BF0
FC83
2AE4
7C9D
E585
3FB6
198C
150A
0E23
4320
163E
57C7
E81F
288A
4AD0
FC45
E41B
2A0F
1031
2504
D84E
1C51
FF8D
12E1
490E
BD93
FDBD
EC63
F770
FCD2
CC68
0961
ECFA
116B
0805
042E
CC55
07AD
1AE8
E29F
05B7
4FBE
E57D
E17D
EE27
2C64
F147
EB6A
EFBD
DA4A
26B2
0304
0169
F7F6
0957
0F85
F6BF
1521
EF31
2F2D
F23B
E1B4
1E96
DD03
01EB
F7F3
0746
B8FC
F911
E99F
E151
4A94
F721
F7B4
EE49
41BB
DEE1
00ED
1192
E4C3
130F
ED7E
DD4F
E90B
FE4F
44D2
E8F8
FD59
0573
2F00
FAF2
EBBE
36F4
CE33
3401
2E62
2973
D8E6
DD58
2C69
080F
1556
019A
0DAC
FB09
114C
2A7E
F882
25F0
42EC
1F22
C06D
C019
F59A
224D
34B7
14E3
43D4
F24C
03BA
06CB
ED99
28BD
57BD
1ED0
ECB8
E5B0
DE1B
FADE
E0B2
13E7
D767
C72C
2F49
1F53
1175
2163
0401
449C
0E06
035D
250E
013F
EFDC
F1F3
08AD
E877
D741
F106
00A2
ED2C
EF15
1FFF
0454
4C86
F9C1
12A3
FDB9
F33E
1180
3330
DF61
BAC8
1170
DE8C
CD2B
C98F
470F
D746
E62E
369C
0B1C
E649
0A35
E1CD
11C5
F2DA
FA23
0FBB
04D9
F85C
C548
EC2B
1271
0173
B4C8
3E53
093F
AEA5
F1D1
0374
4F49
08A6
D24F
36BB
BAF1
CFEE
ED5D
BD72
1DCD
18CE
F863
EE42
1576
C8DC
C957
08A7
D896
BF79
EF06
1D07
0D96
1C31
F8F2
FD4E
03AD
EA28
EE89
F7C8
CBD6
0C6D
F38E
1C70
DF54
43F7
FD58
04B6
F33F
04F1
0B87
EED3
25D8
FCA2
02D8
D51C
06C6
DE3D
E0A4
309C
BF02
60A5
0A35
F86B
156B
F5D8
F989
16D3
DFDA
E5FF
BE73
0EEA
E267
3275
ED8D
7FFF
F85E
12DD
DE46
FEC3
EFBE
0A9C
0BFB
C590
204F
F7BD
BD66
ECCD
3661
0852
2DA3
9BA9
EFF2
F7DF
34BE
FDD7
F77E
D404
D133
B9FC
1705
E7F3
2D02
E2F6
F910
F406
0CF9
131E
16A7
E4AA
0059
FBEE
F6DE
3750
FBEB
2B5B
3789
B5A5
0798
0F75
151F
07F5
F3A8
A97D
F0B4
DA34
0A6E
FDE9
189C
206A
2C3D
FA3D
DD15
B48F
D870
FCF8
2C04
12BA
269F
12E8
1788
2192
D9D2
0E06
0B60
1C8E
08F5
1F34
E8F9
0437
09AF
F427
FCE6
2202
3D07
FDBD
D3E8
04E9
A48D
D568
DF23
CA32
81CC
FCD7
1E24
1392
4BA2
C321
FE2C
0CDC
EBA2
102D
CFE3
5155
4DB2
4C4C
0C77
CB1B
3E47
B3EE
F7FF
F147
7FFF
A969
CF29
021F
E714
ED96
17FA
3039
60B3
A142
010C
5F48
E58B
2EEC
5972
1817
C163
6E22
426E
E379
27D9
9B21
5F76
D3AC
29B5
2287
5B2A
5AA3
2798
6848
D267
E181
6FC5
E4AF
333F
EFE1
2312
D24A
F45F
2250
37EF
488C
7FFF
B79D
2DED
F5F0
A193
455F
286A
52ED
FD61
9672
8F5A
341D
3E1F
0707
59E7
54C0
A2F5
AA29
3ABD
A38C
BB58
310A
0CEA
0334
8BDF
49B4
ABEF
E80D
0053
7E6B
AD5C
2D7E
F646
CBE9
4F04
EEF3
9D1E
04D3
BFFD
3E7D
58B8
ED40
AB70
4C93
E942
213D
9D04
6D01
35EC
2768
8001
8F44
EF77
FD54
099B
4BB3
E27B
3B78
945A
4F4D
BE75
27F8
C2ED
32CC
6D7E
204A
3200
101B
7FFF
13C3
1412
15C4
145A
5BB4
1D1C
3E75
0C7E
0F92
1870
2CF9
2A5E
660C
11B0
6EF2
36DF
30F4
14AC
0843
1FBB
7287
2779
339B
0FA4
3DD4
1262
126B
1B47
28D1
242E
0B8B
1AD1
1DB1
43A9
33A2
372C
0EB8
142E
1D6F
1545
0F8E
419E
60BE
2611
1DB6
3DC3
1ABC
0D5C
1562
1350
1638
1F4B
13C9
7DBC
5283
4BF1
1A91
1D3D
1C0D
2D97
6A2F
66EF
6210
6CF5
71FE
6CA6
7193
6602
6DF7
7166
6896
6F5F
67EB
796D
6872
6BDF
6B9D
6D1A
6ED5
6426
6BA3
7C33
7FFF
624A
6B12
6D5B
723F
694D
69FE
6ABB
7518
663F
720F
702B
6937
6F16
77C3
6FA8
6A72
71FD
733B
67D1
6D26
6065
70A3
6E3F
767A
7171
6D17
700D
7283
7B32
6522
652E
6E3B
6698
68FE
6C4D
71F3
6A4C
66F2
6ECB
6DED
7634
E500
E68D
E248
E047
B214
D609
0D8D
0EE2
1E24
1CD8
4ABA
1D1A
EEC7
D75E
05BF
4190
0C1C
E10A
E30D
F19B
E36F
11ED
2074
38D4
D9E2
E35A
04DF
E102
D60B
C216
D02C
A6C7
F6B2
153B
F324
1213
F97F
05FB
05EF
0BA6
1E87
38B9
1E4B
171F
0B1A
3803
168C
D379
2E32
1D38
D602
04EB
0D6B
0EF0
0F1E
32EE
27EA
22B6
25C5
351C
0F09
D5FA
EFCC
EBEC
0AF0
3E29
3BE6
F944
D76C
E97F
F557
D93D
DF20
0B1F
F9CF
FC3F
F2D8
9637
F616
F22D
B3E8
ED4E
D42A
E4F8
D31D
D41A
C4B0
E6F0
1160
F44E
1FB7
FF38
1478
D901
E160
3240
D13C
3FF0
5CF4
F7E6
43D0
F9A6
102F
18E7
086A
2008
E620
2517
F1CE
105C
DA01
084D
042C
D3E3
34F7
2B24
F55B
F2C0
11D0
21FB
1DC2
21C6
2B97
F710
2BB0
3643
12D8
4CC8
223A
15C0
3C53
FEF5
EE31
20D1
EDDC
F405
10CA
E8A3
B019
CCAB
D127
E266
F070
FB42
3AC4
FBE6
FF20
F6E0
A397
D560
D0D9
D0CE
FF09
E719
2CF6
476B
0139
16C4
F9DA
E0C2
3061
32B1
FA84
F9AB
F5FC
CB98
D409
D506
F85F
DC65
CBAF
CCD7
DD3C
0BB6
0F0D
E11B
1F97
F09E
FAA9
A320
3EFE
44FF
1A99
0F10
FFD6
04D8
E567
F1A8
F133
3EE4
3007
0579
CE32
D84B
DA58
FE6C
0CD7
1FFB
CC4D
D6FB
EC01
B709
E5CD
2C17
3E95
3B48
34FF
E232
D620
C739
E320
CB03
E98A
F1EB
FF11
DC4B
4B92
17D0
1999
34CA
0146
EE35
F918
1D73
265D
161A
01B4
0F1E
0F63
B26E
D8D0
DE07
CE3D
BB8F
E88E
E456
F406
2299
030F
C4D9
B3CF
1192
5348
11FC
D5B7
FC46
416C
EE7A
FAD7
D7CD
E985
30F0
1C1A
1E15
0860
26E4
5157
3A4B
EDE6
2EF9
28F9
F91A
F540
D4BA
D7FA
D88A
B924
E8FE
132D
0CEE
0CF1
23C4
038C
E465
04A2
49B7
282C
E925
F224
D382
F3E7
1C2E
3387
11F2
9B81
FC2C
0E79
1750
E359
BA49
D208
C92F
E5C5
230E
445C
04D1
F945
2E45
1937
E5DE
1EFD
2327
1043
F63F
238F
2F8B
C8C6
0D06
40F1
D9AE
EA47
17B2
C7D0
138A
0949
1429
EB56
E06B
E0FC
C8CB
F131
B2AB
CAB1
10C6
EB11
C628
CF88
CD53
F4AD
2F68
0D54
3205
5A1E
D384
EEF3
E68F
DD47
07F1
D9F9
EE4E
2698
E225
E661
3507
1135
02D8
3507
D046
0E8E
30E8
27AE
EAF7
29BC
1D5F
3B4E
371C
1A2E
34E9
E86A
F965
F472
B444
C926
E96C
0B3B
1374
FDC9
35A5
25EE
E498
CD56
E3C7
01AD
B640
F6D9
155F
DE1F
FE2D
19E7
CF2C
DC23
0C56
1EA5
2764
14A0
3955
4B21
F748
1801
FF06
247A
D0C7
B654
12CB
DD6C
086F
1432
3902
0EFE
C97D
0D78
0938
F7B8
15F7
0A06
F3DF
DFBD
CF14
EA1A
DC77
DC35
CEF6
F491
0ADF
21B7
3A3E
0054
FA50
1826
1E2F
4879
386C
0F88
17E2
597D
04A1
007C
E8B3
E560
12FF
0407
235F
FE24
C8AA
F136
2176
F94E
0F15
FB92
2D4C
5CF5
FF68
F72D
EE2B
D257
9856
BD75
DCC6
FCAB
FE9A
E7F4
E23F
E711
DF67
EAD0
D642
ED1E
DE5F
E143
D244
E20A
E558
E92B
03D8
F0CE
1427
2A74
211C
BC63
E6EF
1B2E
2527
181A
1D98
FB3D
EE80
F5ED
E26B
F69E
0B5C
2399
108B
2AC6
43D2
D678
C2EE
08A2
08AB
ED24
1145
262F
2BD7
166B
209A
23E9
4C82
E758
F392
FA1E
2569
D63A
A69A
F394
FCA2
26D5
E517
E116
3FBC
2534
15A7
2766
0C05
F5C3
0DBF
02FC
EAD8
EF43
E9E9
EFEC
B23B
A690
D540
20BB
2A4B
27C5
46D5
28F4
DD4C
08D6
FD4F
F28E
98DF
063D
E6CD
A9C5
FA39
14CA
18EC
F427
1CD2
1C29
39B3
2BA9
0A5C
0DAD
0EC9
E13F
DADE
FC39
052D
8001
F5C1
33A4
A426
FD71
0230
F6AB
2EB7
4CA1
06C0
0B93
3FCD
0426
1B43
08F1
F04A
CD84
055E
1D88
3C0F
30F8
34DB
0A03
0F1B
1D6D
0BDD
E78D
E964
E7F0
1244
FF65
D473
E9AB
3EB0
1C3B
48CE
FF23
2AE0
EB3A
28C6
F889
0900
6A7A
D9D6
F0AE
6C3C
EA5C
074C
1A6A
FC5F
FB00
F6A8
33D0
1441
0641
643F
2141
1A65
0D25
EEF7
3AE2
F3A1
37AA
1CD3
F122
3F90
ECFB
FBDB
1ECF
129D
26BA
FF64
4794
BF7A
5562
0BDF
03BD
7F0F
1F9B
27C6
0E09
1B4E
0661
31EB
FBBE
0D22
E5C4
2009
0AD4
2642
E515
4D5C
1ECA
E898
D4E6
2378
F968
3581
1DD3
2A70
0727
FDB7
16F3
7FFF
0CD0
3E19
1B0B
0439
4D51
0B2C
2920
0B61
1C68
2C81
3A3C
375B
077F
2FA3
A320
00D0
0CA4
FBFB
7FFF
124A
066C
31CF
E6AE
E810
23CE
4902
0A83
E7EB
1FC1
184F
F3C7
DF12
E612
EECC
E1BA
265D
E24B
ED38
F8FF
DB58
40EB
17E1
E061
3F31
B7AC
2D5C
0A76
9A67
E70F
E6D3
D29C
FBBE
128F
F770
0102
E224
4EEA
F621
F650
FDEB
DA3C
D458
B319
F6C5
F11F
0D5A
0530
E84B
F5C7
5369
1BAC
2C8A
0ED0
1457
EE60
D79D
BB5D
0987
2EFB
2346
EE4E
E737
D730
338C
F8B9
D7D5
37DC
CAF1
CBF2
D605
F2DC
50F4
A9A3
F14D
7FFF
F29A
E169
38D8
9B29
CCDF
4235
0901
D06D
D5C1
D8A2
7313
2339
4118
CEA8
0213
33EE
2981
D250
3EF3
1135
26F7
31FE
2AB2
22BA
1CB3
3CFC
2AC0
207B
2B4B
1DBB
3274
287F
38C1
29AA
381A
5905
310E
2A01
22B3
294C
4659
1EA5
373D
2B02
4354
353C
3C6A
2889
2E55
2DD7
13E8
5B71
27BF
2B3F
2DFA
2DDB
4132
2934
2EB1
317F
240B
49D0
3C44
4CA5
26DB
51B5
316B
1977
2B41
19D6
2F90
2D16
402B
226F
2F6C
38B3
26E8
2726
386C
2AD5
23CF
3CE0
2847
34A2
2319
2CE3
441B
2A87
2403
4335
2CD3
1FD9
2EFC
2243
2640
7FFF
4268
4639
2947
2A63
3514
1F55
2F03
22EE
2314
199D
2BEA
40B6
3A77
3A26
2BE5
31EF
1FC1
313F
2095
2241
68A7
6BC8
6B17
6CCA
700E
6585
6ECC
62A5
6D13
61C3
74D4
6948
706F
6B9E
6F4A
74FE
5C44
684A
6A56
583A
714E
7409
6B61
72C8
748C
71CE
6A89
709F
6D49
59A9
6967
6C55
6F66
6B71
6627
7039
6633
72A4
72E4
63C1
6B59
7E08
6E7F
72F4
6A9E
6FD6
633C
5DAA
5E44
6CA8
70C8
5566
6A9F
6D31
6DFB
6C90
7FFF
65F1
71A1
7192
6B55
6CDA
74B1
7287
6A23
5F50
6B37
6BE0
6712
68EE
738A
6905
672C
69B7
751E
6D1A
6ED4
556A
6F35
6156
6E99
77E2
6145
765A
6927
6FB3
7274
678A
6600
6842
695C
67C8
6054
774E
750F
754E
079E
FFF0
08D8
132A
0A75
10A2
0152
1842
C664
3110
CDD5
1445
FEBA
F7E1
CA71
027F
E310
FB85
2E48
EB0A
E240
F871
4A1D
3674
FD3D
FB2C
ECA3
071A
F958
F906
418F
203D
FB1A
20E0
FE18
1989
0DBE
008F
C774
D172
D010
2429
F485
E108
3023
F648
02B5
DE0E
107C
24D9
08EA
E7AD
281E
24AE
1C73
CC3B
C7C9
1249
37E2
E82A
AFCC
F014
0634
FEDC
F778
1EA9
0D98
2945
226C
0EFF
0ED1
3BD8
024A
132D
F9C2
FF7A
48AE
B6C6
D06D
ECC3
360B
E7CE
319D
0A15
B9F1
F044
18A2
1328
EEC3
D55E
2FF2
1CCE
F89F
1F38
E91B
36C4
D5F7
ECE0
ED36
0222
F492
0AA2
CAE2
156A
0FAD
EF01
487D
DEBF
FF8A
0D50
2029
F9BF
D40C
1A7D
F0EA
1A8E
0A4C
E2CE
C4C4
FA2C
04E8
EE9B
0108
F672
0863
DBBA
153C
FA07
F77F
DBF4
EADF
0A77
2712
E202
264E
101E
3B20
2517
15ED
01A9
F8A5
0E86
19F6
1AB1
0774
F3E4
E8DF
00AA
D94F
0137
2D45
1853
F5A5
F09C
1361
BA23
32F6
DD75
0786
EB91
0EBD
1B12
F810
F5EE
4914
FF7D
0C48
0543
D8FE
E136
F20E
E43B
F5F0
1B7C
11D3
F20C
0C43
1B39
345A
14A1
17B5
D7FD
F302
2AA7
E245
1B36
33E2
E251
AE8D
E187
0950
209B
FCF3
1272
0BE8
EE6E
1AB9
F9A6
DCC6
F71B
D994
E781
E0C8
462F
1B04
147C
020C
05D0
0311
165A
ECCE
DD6F
55A5
01F7
F0B7
FE24
BC48
F7CA
BBA6
FC3D
E9F3
F845
C3A5
F147
1C3D
25DD
DF36
3297
0896
E5B3
EBF7
1062
231E
F7DB
19F3
D3B7
0643
F92F
E779
194D
023E
1B46
E072
0845
0F8C
D644
01FC
EC6B
D81E
445B
DB23
F6C9
0C91
F0FB
C101
0AA6
DF7C
1092
C91F
1C1D
DA1B
F698
F9F1
E9CA
D9B0
15B2
F5FF
EA61
FA97
205F
D9B6
D415
07C5
F4F6
F970
C5B9
1904
F1F5
EE72
1E05
CE12
F117
F9A5
C572
3D5C
0EE4
3D09
F973
2CE1
2039
ED76
235A
12FC
ECFA
2ACA
EC04
E62A
013E
F406
EDB8
E295
15F1
0ACB
D36E
15D6
EC50
2407
1C7E
10DA
227B
C23F
EA6B
E594
0EF6
26CF
0C0D
1BBC
F89E
FEC8
D335
CDA3
09AA
14DD
2644
E8FB
1794
ED02
F563
EA84
F45F
2BC4
FC65
06E8
1C8E
0F71
E3E3
1F2F
15D3
FBA3
D6EF
1089
1049
F7A1
2250
0B65
1649
0826
F518
F73A
C8B2
1DB9
F2F7
F9E9
E063
03BF
FCE2
FDCB
1BAE
58B6
32C6
DA3F
1821
D763
F5FC
2D01
21F1
311B
1678
D8D6
E894
0004
F60C
3A51
13BE
0DD3
EDBA
3A98
02EF
1F1B
2E3A
D631
BEED
F0C9
03DA
24E5
042F
F371
355C
273F
198D
033D
F5BE
0367
F918
F1B2
189A
4E90
15F5
B6BF
0070
0C83
E98E
35F6
08E9
0617
2627
1447
8722
F82B
FBB3
6467
F0A2
023D
1C4D
1C6F
0CE2
0C41
CF73
012E
2D70
FC90
0D14
4511
1F99
F806
F8E5
E996
DB7F
FE48
3610
0C43
E336
1008
1A38
0263
EB4F
ECD3
EB2A
F061
FD94
0722
F21D
06ED
D73A
CD2D
2B17
F630
3D77
237A
DEB2
1A4B
DDEA
FFCE
DBF0
1935
FCE1
ED85
F884
E377
1AF3
1765
D7B3
F5CC
E356
D060
2E95
EA1C
0DE5
ED06
F5B0
1C8E
0CFD
FAF3
41B0
1320
1F18
EA45
EFFE
E11A
D36D
0131
26FC
1331
D2E7
4656
1991
37D2
DD1F
FF50
006B
FC70
DE79
08AF
205D
F67A
F7E2
0D58
E259
3B2C
1DCC
F93C
295D
E0A3
DB94
F04B
DB4F
FD26
F7D3
1435
34F5
0180
F51D
DFB3
1CC0
0D60
D438
FF01
F990
0641
080A
F0CD
C12E
F029
E200
F1BA
E12E
3756
0C42
3557
D924
EE3D
FD4D
E8B7
FB9C
FB34
0709
FF26
F14E
1629
2DD8
237D
FBA1
1300
FD8F
EAEF
3708
1B0F
10EE
CA5E
E90E
F68D
F242
D7E4
F7FE
044B
D509
293A
C419
DA53
FD06
E447
1F0C
188C
F2F3
274B
24A1
E343
0F3C
0DA0
D061
DCBF
E0E1
05E3
FA4B
36EE
28F7
0FC8
1E61
3A21
FFC7
077E
1C28
F71F
27F3
0628
DC0F
F7BD
CA20
E78A
046E
F875
FC4D
1A6D
E4D8
5955
DFBA
067D
F945
0491
E1CC
D858
14CB
D6AC
E17C
241F
42B9
D686
2303
2981
0562
DE1B
2950
D2AF
05B0
E139
197F
E7F8
EC94
19BF
FB14
089C
255A
FED8
F62F
F7BE
13EC
0876
B4A5
13E5
2F3A
EFC1
F12F
211A
1CD1
FA54
ECB3
0526
256F
2107
FCCB
E0B2
F490
F80E
35DF
10CD
106F
049B
FE7E
1BFA
05FA
47D8
027F
F932
0B51
CC06
0991
0C40
FE66
225D
0A4D
D2FF
241F
2161
008E
CE4A
2817
08B2
0A67
F82D
F5C4
EFEA
F1C2
3E8E
0769
2169
C062
DD65
06D4
FDFD
2410
18E2
2538
11EC
E75A
5308
2BB9
025D
B697
2044
002D
08A3
1290
EC32
C33F
D1DF
03DE
132C
F317
CF61
ECF0
FEBC
F97E
CDF0
E683
D94A
EDF4
24A8
21E1
D829
1648
1CE7
0F1E
D228
003A
110A
D60E
271A
CCD9
1E60
2C80
FD68
E3EA
0972
D77D
CF6D
DB02
C972
C61A
162A
2E49
2508
4613
088F
0FDB
E461
1E2A
E749
321B
09BC
27E7
E9AA
05EC
0E55
07FE
F266
2374
FE9D
063D
0C57
0337
DADC
FAAF
B8C4
ED49
FD60
FE4C
0B4D
ECA0
E761
FAE2
E72F
1825
0400
F770
EA96
15C5
23DE
1AE4
D2FA
F495
0564
E71F
D8DB
CAFF
0756
F7AC
C67C
D702
0BFA
FDB8
0413
E481
1B21
04D4
2182
FD4D
EA6E
E47A
272A
DF3F
1466
10CE
37DD
FD54
CB79
EA63
EE0E
CFCB
14AD
FFA5
2926
423C
0843
D0DB
F5B7
FCB3
1780
E893
0F0C
19FD
F2A8
28C8
EE38
E781
2F3E
E8CE
0F35
E928
F5BB
EF69
2F02
F286
0ACC
0483
009B
0F69
11FC
0B6C
14F2
3649
BCE0
0063
B2F6
E035
0905
FC8D
EF11
FA78
CC15
4FC5
FAD6
50CF
FC87
18E7
D23C
054A
FB89
FA6E
EC53
15CB
1D74
EA76
E980
1180
F85B
DCB9
19CC
08EA
C55B
064D
0009
12C9
FEC4
0142
09D9
024B
0234
EA9C
FA02
CFE9
0C35
0524
1418
CBC7
28DD
D4D8
1CAC
F522
4A04
E19D
F36C
14CB
E6C9
EE5F
21AE
039F
E4D2
EE9F
0571
E6A6
E964
C3B0
4886
CAF3
19C1
0775
0032
FC5A
219D
0205
2BEC
F9E7
2490
089F
E765
4283
2219
D40B
C313
F8D5
FBE9
F6E2
D627
1509
FECD
D9EF
DFC8
FBD6
E6D5
2D24
0CCE
10F6
FDC1
D73B
3B4B
11A3
192E
D7CA
190A
2C7A
ECA1
3486
0197
AB5A
FE18
FC1C
FC24
0D5B
222F
EE86
0709
E6FB
EEE5
E55C
C16A
EF41
01FB
FFBC
FCE2
F2B9
E642
DE5D
E01F
CF61
4865
ED57
C610
1507
CE76
1A0D
BCEC
01E0
080C
10BD
EF9C
F250
0F75
D79D
FAA0
DA53
ED68
DF26
E52A
E53A
FD08
214D
09F5
0FBA
E21F
3F62
FDC9
E490
0689
297D
EEEA
23E5
2020
E678
DE51
01B4
BC49
A91F
0CBF
ED97
F2D9
D6DE
D5BA
3B49
DA30
D848
FA86
11CF
137F
0101
CD34
3327
01AC
F73E
D4B5
3583
45AA
EADD
CBE0
F510
0C38
E770
1455
19D4
2287
FD9A
1206
FA4E
43B2
2AEA
04D8
297E
D4F0
256B
EA22
E441
D668
F704
0048
086B
0769
DD1E
1116
22C1
16C2
DE58
AC85
F992
EA8D
1377
E233
01F9
45B3
0460
FD60
FD2C
31F7
F4B4
D3B6
18EB
1017
F1B9
2513
FB0F
F9DA
F7F0
05F1
001A
1196
F327
32D1
F71E
1F34
F2D6
000F
F937
0D41
2924
18E4
0F9B
1B7D
057A
065C
F5D4
FF67
E67A
FF41
13BF
1F08
0D9F
F934
21C6
1337
E7C7
16B9
050D
FCA0
E72A
0365
FE60
2D89
F20E
EBEB
0869
405B
F8E3
3B9C
07E4
F889
0482
F92D
2CEF
034B
2349
1CBA
F9AD
F23B
224A
09AF
086E
01D9
18E3
C901
D7E5
09D9
0C0F
0919
09A5
EBED
DC32
01C1
E3C5
D4E2
F752
DF82
F220
37E1
D828
CB56
DE61
EEAC
30BE
0543
E578
DD16
DDE6
F0D1
2DEA
F4AD
20EB
18B8
272C
D7F0
1AB1
F543
BCF2
EAE8
E085
F22F
E3E2
112C
F4C9
F5F5
0380
E56B
F45C
EE89
0601
020A
4C6A
F2B7
16D3
D973
F1DC
ED07
EE96
08BC
F723
DDD1
F21F
E9E2
F9F5
F6FD
1EC1
FB20
05E5
00F5
C968
000F
D802
FA33
052C
151A
F2FD
20BB
3220
E675
0F06
024C
FD2E
D47F
F471
FC82
0B07
0CBB
E026
2415
FB8E
1B7E
FEB2
F1AC
D82E
4C24
035F
E57B
0F1E
FCE8
0C6D
F7F2
ECBA
F040
1AF1
F21D
1DD9
CCFE
02FA
D441
E2C4
234B
3699
4CF2
0D9E
FF3A
E04E
112B
B651
F305
FE9C
16F4
E7DF
EE4D
F660
DCD7
1251
13A5
E571
00E4
3BB6
DE8E
1B46
E384
2938
C053
1FF5
263F
1DE5
EAC9
217F
E412
1B83
DB8D
02E8
096F
D814
E501
C343
10DF
0681
F735
11C0
DACF
245C
F5E8
CF48
F1E0
2B52
1D66
0F1F
DDF8
D43C
0EDF
F042
0B74
4D20
0F4C
D185
2341
FB03
FB39
4ED2
F414
06EC
E135
0BA9
C992
F08B
9F3D
F6A1
E09D
123B
FDED
262D
1A2A
F75E
1073
FA45
07A2
4490
CDF4
1F6A
0C30
DE8E
FF67
FF66
02DC
1841
14F1
FCCB
1259
02B2
0DB4
DBE4
D4AA
06EF
1270
A1DA
077F
FBAC
FE34
0D6C
0448
ECA8
30A4
FFD2
F1BE
F8B0
ECF3
21CF
F091
DC9D
1439
028D
0511
FAD5
CA2C
0CC4
EABB
F75A
D7C6
E435
11DB
2C7A
1B6E
0E5B
11EF
053A
0602
DD9E
07C3
27F7
1D18
1BE9
F917
FCE6
F455
E71C
0403
0DDB
F5CA
096A
1C11
EBB8
14DC
F89F
05D6
1B24
02FD
0D0E
1E8A
3CB3
1424
4AEE
1A19
E72C
E28D
FA3E
289F
1A34
DFF5
EC2D
04E2
FE7E
CCD7
DAC3
F6FC
1192
0B95
FCFB
050F
445C
E6ED
3DDD
F0D3
F683
0412
F32C
1BCD
D876
E2FD
EA45
E9FB
0F35
EA7C
17BE
1180
CFB0
E8F8
1E83
EF6D
FB98
E4C0
2100
DC0C
125D
F8DC
3821
FFAB
21DB
F031
E9E4
B8F2
FF48
38B8
E532
0B07
EACA
D1F0
EEA5
0265
FAD1
F6F5
0258
DB94
EC43
2C19
D60D
EA3E
F7C7
0170
F8C8
3BD4
5738
1B5A
39E0
2508
F439
0A95
1104
F821
118D
05F7
0395
5ACD
CB45
DFBC
22B1
03DC
0F76
0386
E2C7
DFE1
0E61
12D7
1992
F228
1737
0B3A
DF89
EE86
CEC3
000D
DD37
0E14
3E00
DB84
303D
D59A
186E
E86F
03A2
1C1F
D449
FDA9
3F6D
BED1
3AB6
D35C
0757
19B8
12A8
EE29
0CCE
EF2E
F133
F667
E84B
F5C4
F161
FA4D
F5BF
D7D3
1706
E7CA
11A3
2BC6
F22B
E282
10DC
07EA
F97D
060A
06B3
06FF
0BD6
39EF
B5E1
14DF
22FF
D863
251E
0CC8
1C7E
DE49
0E3D
EE45
34D3
0482
F7B9
BBF7
BC16
F619
EE77
FEFE
DE6C
21A8
05EB
FFED
0E25
1249
00E2
E96B
12D7
3974
042D
329F
DD45
F939
FD78
C8E0
0F00
DCDC
E4C2
FCF2
2CE5
FC5D
2248
D501
0E28
DD5B
2B98
0974
F8F6
045E
01F6
0121
20E1
17B9
124A
0E2E
CEA8
B45F
ECB6
23DA
0052
0C9E
1DB9
31CC
D96A
610A
C1B5
330C
1109
0AC4
0D89
156D
1422
E07B
E2D1
079F
1A0E
21AA
EFE1
096D
060A
372F
2C4C
207C
E78D
E7A9
22A3
D57C
E768
E82B
EA7D
2446
03CB
CC28
0F41
EF71
2DF8
15E9
E085
FECE
044A
C352
C2DB
F6CD
244E
C080
EA1B
11C3
E9FB
9B56
198A
15E1
F9CF
F1B5
0C5B
F73E
F1A6
1741
06C6
0292
06FA
20EC
EC4B
EF19
FE65
1398
08E6
EECD
F983
090F
59DD
E432
18B1
D210
E60B
F515
EED4
CCE3
F2EE
D3AC
F927
D7DF
E952
E87D
F612
03A4
1329
1326
0CCE
0837
005B
0241
0C89
1E2F
E4C8
03A6
2FA6
2D64
EE20
FA6E
0886
21CE
A72B
E96F
08E0
E2AA
F9C7
F059
E70D
568C
DB0C
FD95
E46D
FF16
4434
E8F5
144C
0F49
A981
5FDD
0D7B
D9D0
EB3C
17CC
C3ED
C009
C6D9
1384
E51B
02DC
22F6
2C06
3CFE
0CDB
1811
105B
250F
12C8
32C3
EF7C
D55D
EA36
07CA
236E
EA3D
FBDE
D516
241C
095C
3115
F05D
DC8B
F031
3400
093D
1E9D
1127
E172
0060
F7B1
0773
F765
472B
0189
18EF
F835
054D
FEA0
2256
EF0C
F634
37D7
18ED
F33B
FDFC
0D34
0418
20DC
E837
119C
012F
FD16
F76A
281A
E668
D977
EF88
CF15
EEC1
04F4
C679
3CBB
ED95
3395
E50B
1F3F
FC6E
F8D9
EF9B
D8C2
E0A8
325F
2332
126E
C24F
E8F0
F988
F82D
F61D
DB96
0BA0
2D0F
FE87
E9E6
0BE2
F788
417B
FF9E
292E
E79B
0545
1CBB
1A03
BE51
9F4E
0000
15A5
1C79
C9CB
098D
23D7
F873
BA89
F29E
D7D7
0A25
FDAD
E55E
FB38
FAA5
E024
30C8
F00D
0E8B
EB18
E3D0
FDAA
1458
0CF2
BA02
C9B3
FA0E
27FB
E1B5
F743
0217
E202
F105
1274
FF97
E22B
FFA4
FFA6
E96D
09CA
E04C
076E
E3F6
1D4F
A15C
0511
CF75
01B9
0D19
E3D6
FC33
FEC6
F307
1687
0A1B
FDA8
FC34
E577
F789
F5B2
15E3
106B
F96C
0BC5
F6CA
F4CD
2BBB
042C
12CD
D73C
EB1F
F940
1F0C
FBE5
0941
FB32
FD40
E3AD
E2C0
0FD1
C36E
078E
EE8D
04B7
393E
0766
D31B
D423
1C24
F620
49A8
0D59
1708
FD26
E99C
F49F
1BFE
ED1C
140A
177B
CA67
0D17
F675
0C9C
EC13
FA74
F90C
29A3
EB8F
2E29
F7DD
B92A
DEC1
CD72
1652
0BD8
EA55
CE0A
2034
2E5F
00CF
037E
F27A
137E
212D
057B
D119
F999
25DB
E0B1
11F7
EA3F
E914
F0E0
ED4D
0FAE
0F01
1C83
F2BF
EAC7
203C
F4FC
0E2A
F4E5
1449
E1E8
08C4
0760
E0C2
04DD
1542
DF84
2B98
109C
EA97
E447
E52C
27FA
116F
E761
19A3
E111
EDC9
B315
1746
06A1
E900
E41D
0AE9
0A14
1657
E60C
03F8
10BF
C6A0
EF48
FA06
0EB9
148B
CA6C
0555
0026
0C74
0812
C67E
0B15
197F
BE36
EA44
D6A0
F893
F0BA
C9EB
FAA1
35CB
DAF7
11B7
F709
1F99
0012
FE30
DE84
1B28
0AE7
D8A2
0330
BD2A
2323
FD40
E32B
E00E
0DA5
32E9
FBF5
FA3B
CCF7
04B6
E7C2
F2DA
0CFE
F87B
1F2E
DFA9
1FD4
F243
F070
B485
01DC
F65F
E5D9
E3E1
1666
F315
F138
C469
19DB
1F5A
12C1
F5A1
058C
C90B
6ABE
24DC
22C8
2CF1
D1CD
0E29
0F7A
EFFB
1C02
F7CD
09DD
193A
0A9D
2DB0
DECA
ED2D
E6C4
DF89
1466
CE7A
E9E1
FFCA
0BDD
1F62
1A4F
1B08
140B
03D2
EDB2
D6B2
EF41
09C5
2FD7
0FD7
E42A
2E0E
0E24
EB86
0CBB
E14C
D9FD
E469
E4FC
DE4E
1161
D4F4
2034
D2FD
17D4
37A0
E13B
31C3
CEF4
FCDF
07BE
1B33
BCFB
11E5
E68F
11F5
DCB1
F15D
2051
08F9
F814
020A
F1F0
0C9E
40A4
22DE
F52A
F6AC
F532
DEBD
34E3
D506
FB57
1542
C079
EE15
F881
1214
FA4B
DCF4
F9E6
E131
0EDE
F6AD
D703
F61B
302B
1015
0D8B
1F3A
1E5B
10BA
1A22
D100
F590
E226
066D
01DA
15A3
24D6
F8CF
2E42
0012
F672
DFCF
23B2
3D07
DE8C
02BD
F29F
2166
CC64
D9B5
E64A
2B51
17FB
F81F
521E
FF00
0AD8
3EE4
3AA9
10FB
C4B6
0EF0
F037
F8B1
11D0
138D
012A
E59F
F35E
0707
ECA6
2E31
0BC5
2AEC
222A
24A3
F1DB
0FC3
0006
1027
F2D8
F721
FF41
055E
11E1
DC09
2B14
D758
F639
F369
2F46
E182
0A3C
20A1
096D
E61A
136A
E6B3
FE58
1EB3
E082
296F
E38D
E726
BA73
E4BE
397C
E85F
FE57
0772
F1EF
F116
069E
04CE
E186
1AEB
D3E7
1950
C5C0
F16A
E70C
1480
F57E
3C22
CE8A
053F
1083
D5B4
D2BE
396B
26C0
1EA3
02E5
E4CE
E759
161B
F74B
545A
E6B6
19BF
203C
2AB6
0171
DA96
EBB3
1BE9
D151
E80A
E98D
F320
0F83
FC45
0D3D
0084
FD0F
D41A
0313
E139
FC70
0683
FB31
2529
2858
1881
E0BA
D7F7
0FC0
FDAC
3A99
360C
DFCD
F8F2
F6E7
B616
F920
02CF
D64F
43E3
D27D
1A54
E82B
38E5
F24B
F5F0
E9BC
ECB2
D606
19FB
1340
D942
2AAB
E079
23F7
F0F1
0058
2CC8
1B53
0665
1DB3
0304
D76F
20F8
090D
D1CE
00E2
0568
1B34
FF7C
E206
E123
FFBC
FE15
9F6E
21D8
170F
E7DD
D096
F7B4
1B0C
D837
3411
1D71
ED4B
101F
EFCD
2326
FE53
0956
E061
3575
E107
F66A
08D1
2393
9E3D
CE37
37B3
F6E5
D79A
F4BB
1B6A
F5EF
ED68
FC01
3E20
C737
074D
286F
D86A
F436
0C21
1C79
341E
D2C3
1DFA
1746
EA5C
F860
F7C9
14DD
11FA
F608
135A
D722
E239
F4A4
E5AD
1B08
F89F
3B43
0029
5991
F8DF
E7CE
F11B
E743
07AE
09CC
1571
0232
E883
08AE
FAA7
41C4
0C44
16B9
0CC7
D57E
2016
EC0D
2656
F76D
0B24
2476
0B8A
04FD
2FE8
314A
2F96
0178
2AB7
395F
0DFD
F604
12BA
0ECA
E96C
EF63
FE7F
0B98
F90B
10D0
2B7F
0ABD
12D8
2E5D
C68F
2975
B498
BD04
17EB
0373
C87C
2126
485D
E256
17A5
EFBE
19F6
0F12
21D7
FF86
05B1
E16A
DEB6
23C0
EE66
E836
233D
1AF8
EDBB
FAA7
09A0
1C36
0A04
E946
1ACB
F90C
F673
FCAE
0C87
D5B0
FA94
F368
2B68
E3EA
48C8
EE1B
0208
1A44
117A
F064
DCB1
DB64
1B58
EB79
5973
D547
D9B5
1A27
B4CB
E2A8
EE3D
E38D
EB8C
09E9
E46E
F9BF
2BB8
1DC9
FA1C
FCC3
46F9
8B80
0BCA
1F1A
EC39
04E4
FEB4
E15D
2626
F2AC
E9FB
0BA3
209F
FEAB
DF5F
1943
0E6A
E325
D9B0
138B
0491
EA41
E2FF
E87F
1915
DD6B
F5A9
F32B
2AE2
19AE
E1D3
CC41
FF18
2F0F
DF19
349F
DA0E
A447
3229
3356
11B1
1AD8
E649
024F
E239
2423
2383
0431
FCEE
0122
1A8C
03A7
D128
2C0F
DD8D
188B
2009
25BB
8001
0899
F06A
0BDE
F8C5
49B8
DAD3
3029
017D
0711
0A52
04EC
3187
0310
323E
1217
0E3E
2E5C
D69F
06F4
C7F1
F117
F31B
EE5D
2205
1633
B957
F9D8
ED4E
EBD5
FCC8
3774
029A
10E7
FD79
F2FF
FEA4
EEF3
072E
0DFC
3955
D4DC
CCF9
ED81
2481
E1DC
F0D5
FD9E
FC25
1A37
FCA7
0DDD
0D59
2FDB
F606
EFF9
C9E4
F175
E32E
1EB1
0B7D
FA0F
D77C
3230
E0B6
FFBB
FC8E
365F
DB8D
ED73
3A79
E965
E00E
109D
1CF0
C91A
1006
F36E
C537
0C62
EF7F
F39D
2E38
B246
19D5
3978
1ECA
F3C7
0843
C990
202C
3A1C
F95D
FC82
B91F
F678
326E
1B99
0FE2
1F6E
D826
E428
E09A
F284
1837
14C0
FA75
D765
F6FC
E1D1
046F
0269
02F9
DA61
0E73
F5C1
F41C
DB2B
04AC
1971
008C
EDDA
DE4E
B8D3
F60D
11A1
E690
121F
F99A
0A45
E256
23DC
086C
D2B6
0EE2
2106
4B0B
E175
D981
F02E
DF93
396C
F896
DE8F
C5C3
11B7
29FF
17D7
F41E
E1BD
DC61
0D4E
0690
FF1C
0B89
0321
CEA2
10E4
E85F
D7F2
2CE5
FC2D
D103
1789
C1E6
0D39
11EB
136A
200C
F1BE
2064
1B31
FEF1
EEC9
B098
D8F4
04AD
0789
0E54
1A54
D581
14DD
F534
0AE8
F578
F084
A366
3060
FA1D
0FE7
F548
C8BC
0028
2BD9
E308
280D
071C
E9A0
0BF6
F900
1097
DD9A
0359
E421
E820
D08A
E05F
C583
196D
DEC7
31E6
0C1E
1DD1
0897
EF7E
EAA7
B7A5
E688
CA2C
D6C2
0EBF
21AB
2362
D772
0A0F
DACD
560C
C340
2325
F4CD
A842
B7CA
211B
01D9
305B
1517
004C
F385
FA01
1789
EDAE
CB67
0567
14E1
257B
32AF
E483
1DC4
0F85
1DF4
FEF2
EBDF
F07D
3CEE
E8A3
DE3A
D408
EA1D
0CF6
D626
E0D0
015D
1FFE
F6E2
F4C2
D05D
0987
CB06
09B8
0D35
FD6D
E982
1529
DB88
EA20
086F
052E
F6BD
F747
EBC7
FF0A
0D9A
DA4D
EEA1
F8EB
E43C
F26C
18B8
470E
D01E
0900
E1FA
15DE
EA24
DA1B
CBE7
C9C6
FF3D
01A1
E20D
3676
F7B9
127E
FBDD
F33E
E660
0E81
FC10
FBE9
FD6B
156F
3BA4
E6EE
F0C0
34F7
31B3
029A
1754
F9CE
103F
14D5
D7E4
088E
F777
1EC1
2F25
F0D9
0B5D
1064
D936
CE0D
0684
13DD
4CAA
CE0B
F934
F9A3
D98A
E65C
EB95
F31C
3C95
FDC1
E29C
19D2
0AAE
E2B1
0D9D
13CB
FAD1
F3D3
FF35
AC46
0DDF
DC10
0690
F5E6
2D22
1585
ECE1
04A8
1F91
FC1E
FCE3
1949
E78A
E399
F2EE
B4BA
D839
22E9
EADE
1979
EE6F
0DCC
285B
E0F1
1513
D4D7
1DDB
315E
143B
E1C5
30A6
0BCB
4226
3147
C8B5
EAF0
09CC
CCA1
23DA
EF86
F7CA
1414
0E32
1E62
3910
1EED
29D5
028F
C693
CF2C
E350
0849
0479
1839
1B4B
0F5C
0B56
C849
ED8F
212E
EE0A
F4AD
FB63
4B39
0489
CFF1
1279
3111
ECEC
F05A
FEB8
D6AF
1515
2C17
FE98
FD7F
1A8F
279C
F5BA
F27B
ECB7
07BC
B666
ED5F
DC94
EA76
D8FC
F815
F393
27D4
F219
D5DE
2087
172B
DEC5
344C
04DA
25F1
269E
DD86
E411
E666
1D53
0837
D761
121D
0625
1291
270C
0703
026B
021C
EC51
1254
FB35
06D0
EB96
E7FA
265D
0D76
1D54
F5F8
180A
F41A
F39A
1D60
1982
BD9A
DB3A
103E
1245
E93F
E094
12F9
C9A5
E52B
EFE4
EE16
F4DD
09DC
F1BF
F3EB
1F4A
0ABE
E90C
224A
E086
1619
FF77
FB1F
E9E7
F33B
1F41
05ED
0E21
F6F4
FC64
0426
E12C
EE3C
15C5
0973
0D18
E988
02B4
4429
055A
1271
FD90
F4EA
CDFB
1E87
07DE
E4D2
D033
C200
F05E
B49C
C151
E22F
1985
2394
EE5A
FEDD
DF01
2841
F221
B93E
082A
062F
D981
366D
2362
D24A
D962
F303
E465
E97F
F10C
1039
345C
1352
14EC
FD32
1C4D
FE2A
F373
E142
0B35
0746
190C
0E99
0035
1C03
374B
3591
F0FD
F700
FD32
3EBA
32F7
11CB
483D
E2C2
F2CC
E233
CE96
1C95
1EBF
43C0
C1D2
F7FA
044D
F09B
FF50
E922
1C37
00FA
25BD
E212
00AC
F5CF
2E64
0743
3ED3
0294
0D1D
DD3D
F66B
E10D
E24D
093C
FCF9
FDAD
D17C
05FD
DB26
1993
E346
0726
2A46
EBF0
0876
FAEA
33FD
C650
0649
067D
C1FA
F4D8
E0FF
EF85
ED02
376A
E382
370E
E9A9
F9C2
1220
00C4
1081
E0B7
19F2
1AE0
069D
E8D4
EEF2
1751
FFA1
E639
2ACF
F728
DF3D
31C9
EAF2
181B
E052
2916
008B
0633
1C0F
0AA2
E9F6
DD35
E0C7
0055
E4C0
FA2E
EFB5
FEA7
2D64
0AA0
E9E0
0159
F19E
FE0C
31A7
F913
0ECD
1D39
29A1
E509
E18E
1601
0E9B
F894
FDA2
FDDD
05E1
1102
5181
F971
EDD5
4648
22E5
E3EA
02A8
1216
14E1
1CD1
234F
4C3F
06C8
DB3B
0DE8
ECF8
1605
3ADB
09C0
3329
0706
FAED
99DB
0033
020A
22E5
FADC
0D96
F5F7
3DFE
FCCD
E401
F2C1
0815
00B3
114C
10AC
EA3B
E3C8
F33B
0832
E1C0
07E7
F878
125D
2F71
F37D
D8F3
1157
C3F7
1153
03B4
EE9A
3B67
E4BC
EED8
248C
11A8
1D86
2646
2175
0F7C
FAE0
EEBA
1722
EA30
E943
1F79
0001
E68B
EEF7
30BD
0D3F
284E
0BC1
F79F
27A7
A6D8
1E89
2D8A
0B4F
0319
2B9A
EE58
0E2F
CFD2
DCEA
123C
2045
1FC1
FA3D
01F2
E758
E4A3
E488
DEC1
2D04
3226
0290
DF24
230E
0CF4
3A2A
CE2C
0F96
1EBE
14E2
E32D
36F0
119C
059D
FDFE
1FEB
F1E2
13D4
2BD8
0A09
E7D5
E28F
1696
0D7B
EDDC
10DF
2313
085B
4E6F
08DF
007A
D09E
F352
2850
E2D9
C5AC
D6C1
0480
F068
1682
215E
EA78
3623
025B
E5B5
F4B4
01EA
0457
EABA
0F99
FB18
0272
D590
24D9
0435
2BC5
ED1E
0CC6
0C60
0EC5
1308
A085
F2B4
FAD9
0827
03A4
FF91
0C1A
D7AC
F757
2A2A
E82D
C05B
389F
140D
CD6A
1EFD
F787
1342
0BD2
0C72
0E7B
214C
EE18
F2A2
0DCE
EE86
30D4
07A1
10A3
FFFD
EC3B
05BA
2646
EEE2
27DF
EF93
DCFD
E6D6
2169
E0CD
E1DC
040E
5197
0E7C
C98C
187F
E41E
487E
181D
F874
07CA
FBFD
F904
FD02
EF72
077B
0B43
1142
D19C
FB2F
FB5B
0067
FD53
E482
083A
E209
ED5A
E877
32E5
26B3
ECF6
07D6
26ED
054C
1ABF
FF31
FA61
E50B
E4AA
F4FF
D7AD
1520
CEF5
1170
E8C2
246C
FCFC
3728
FE04
F980
205D
DD97
27BE
ECA1
FAA8
11CC
F0BE
0DE4
E781
CFB1
F8A5
0105
278F
FF57
D312
196F
2172
DF3B
06E0
FD1E
C65E
C72A
10E9
3213
D10F
0A06
47E4
173C
FDDC
24D8
CC03
1094
236E
0BB0
34C8
3C01
DEFB
E0C5
21F3
F882
FF7C
08E3
E0E6
E4F9
35A9
F3FB
1455
2C80
1AFD
11B6
1E58
E764
2EA0
FA5B
1619
AC4F
10B5
0D5E
078E
FFEC
0FAC
069D
0E20
F699
3F6F
3263
1AD2
BECC
F4C3
35AF
02E1
03E9
1C37
C5EB
E008
F52B
D419
FC03
E9D0
0B5D
F21C
06A1
DA6B
06D4
E8B7
F0FF
1F1F
C279
EC2E
D9A4
2462
F850
EABC
36EA
FA38
FBFA
0F31
A1E1
DA75
31A8
C36B
07FA
DB8B
EF28
0A5E
043A
1412
33E2
EA9B
0BF4
D858
E9BC
F742
D5A3
F1EB
1779
2A79
0546
0BE5
051E
D308
DC5B
D5CF
FF30
EE66
3274
17AE
205F
F00E
0C06
D9E0
04F7
C9B0
0284
C73B
D393
FC45
CD9A
E51B
2575
E855
DC80
C7E6
FABD
17D4
2BA9
F238
DB75
1BC4
D993
192A
02EA
F2EC
FE7B
F458
075A
E8F7
385B
F452
1016
1B77
14B5
D499
5E75
DB2E
CA4D
0B94
C46C
097D
2086
E25D
1BCC
FF10
B4D8
44C2
F927
F3BE
118E
144D
014C
C217
F94B
F2FE
F335
0EED
0D54
F08D
0709
D518
CAC9
F199
F56F
F1BE
F688
F569
03D2
0176
1546
0E91
0ABC
D64A
FD6B
EAFE
D0A8
EFEC
34B4
026C
F8A1
F225
4A38
F772
0B62
0718
E9FE
1DE7
E8EB
F633
F496
B7AE
FACB
D11F
0D9D
1E87
1E57
E32D
08C3
ED0B
16F5
11A2
F696
D84D
198D
D646
008B
DFC5
0BC6
15B9
EBFA
0248
04C9
3934
0B7A
DF60
E957
166E
D147
FE7A
DCF8
C3B0
075B
0F47
0AEA
1C40
E337
FAD9
C8E3
20BD
D4FC
D376
0C57
09D3
47D8
E700
E2D7
0F4F
0469
171A
1690
E443
0721
D3FE
F4EC
0C21
189F
FF90
286D
2714
0EE2
CB0B
DCCD
4CCB
D7DD
301D
0101
D132
F26A
1E4D
2A8D
F6C3
FBC2
D005
FBAD
E586
0D01
390A
EF58
187A
E2AA
F834
1F42
F10C
32FE
F452
20BD
0281
105B
E7C3
3046
1D4F
F7A7
E9BF
0983
D267
0675
FD43
00BC
25B4
289D
236B
28DC
0CC2
1A2E
F0D3
2764
0D0C
094E
F873
F2FC
01A4
FB6C
F478
056C
E098
E42B
0F79
DC3E
0599
0DC6
F867
C0D9
0C28
1B98
C626
0239
2AC9
E204
F7D1
F3BB
0F74
57F7
020C
22CC
0CA1
E301
EDBD
DB46
26ED
F269
009B
F146
1531
053F
2F5C
2F5B
D727
0281
1990
0A7F
1C92
2805
0DF4
D586
1534
4EFA
ABF8
08DC
1FD5
FB15
024A
06CE
E785
F276
07DE
0FE6
FECA
EE2E
C6D7
F5DC
1DCE
F396
F33C
FFBE
F9F6
0458
DF18
EBB6
12AE
F9DB
1376
E1FC
FDF1
16D0
DC0C
D02E
0579
1ABF
CE0C
FD94
198A
115E
06F7
0DD9
DB94
060D
E955
F2D2
419A
35A0
1395
1E81
FBD3
207E
1E83
F4E4
0880
10E1
D910
1358
DF4A
F567
E81C
0412
0E5E
C3A0
E2AA
23E1
EFBC
0ACA
010C
FB36
E682
2C35
FA2D
FC38
32C1
163D
0ACA
D040
C68E
EDA3
E72D
1766
0372
EBCB
14E4
F120
EA7F
371E
28B3
E827
2B9F
1D69
E95F
D8C8
DC0B
19D8
050F
1434
E8BC
207B
C423
BE35
0C74
204E
0E0F
F246
E20B
E9AE
368F
368E
0DE0
EC81
ED7E
CD10
12FE
FFCF
0C9E
F0A8
C717
F885
C870
CC1B
3433
F7BB
0697
E579
1754
D9C2
141C
FA52
EF3D
0E77
BED6
D044
10E4
EDD5
1770
2080
1AF3
F9BB
1786
03C1
E449
FD51
F567
F29C
33FA
DF5F
F1D7
29AD
297A
04C0
1BA5
EBF9
DEA7
2EAD
D4BD
0AB2
1183
C2EC
EEB4
1F3F
D6FE
F982
1B53
2B3B
F589
28E2
07E8
1785
F132
E050
F874
FC62
077A
1ED1
CF5A
3B65
00F4
DDF5
E2CB
0142
EA77
D41B
EA06
13FD
F382
A0C2
FC4E
F3B3
A9E2
FED6
E32D
187A
1A16
FFAC
130E
42C7
0B26
C4E7
CEA6
21EF
5874
18A6
10CE
ED7E
DFF3
EF26
DC9D
E22E
FCE7
D6E0
3161
CFCD
D439
1773
F4F4
00F6
FCAE
0707
1A2D
1861
19E6
F541
EEE2
0EFD
F4FA
4D07
EAD8
E565
209F
E757
D849
2743
165F
D357
02B0
1A00
CBF5
164C
EC16
1236
FE59
00B0
14E9
14C2
476D
0B1D
F22E
0743
0896
FEFF
2CB3
D103
027E
09DE
FD7B
28B5
DEE1
EDDB
041A
F994
26B6
132F
10EF
04D4
F752
0D17
E59B
0938
C5A3
315B
2834
2C47
0169
0268
1DED
060D
D172
00C4
422D
FD75
1653
E7F9
F710
10F3
0046
2CF9
0E30
EA34
33E7
E3F5
1618
F820
D48B
0547
1C93
5111
02BF
CE89
202D
0FA7
D444
E2F0
04F1
F115
2D7B
06A4
0A74
0DF4
1BC2
0349
DC87
DF30
1960
D95B
3988
E8C1
D9D0
10EE
DF93
064B
E2AA
0920
BA47
E6CA
FCF5
0347
2826
1625
F51B
2CED
E4E5
014E
FDF8
0B6A
DD58
1F98
263D
F54E
19DC
3A36
D31D
237F
320D
F7B1
BBE1
074D
22D9
DB19
F6D1
053F
FFB4
F43E
F49D
FE8F
EE8E
1DEC
2F11
FCC0
FD3B
06CA
D9AA
F940
E528
0450
FF09
FBF6
F505
F3E3
27ED
FAA0
0785
2761
135F
0D0B
F84C
ED3F
1EED
EB8F
03A7
1E1A
1B3B
1067
44E2
0A10
F034
CFEC
D31F
C218
078D
4207
EAFF
C60E
E099
E320
FF5E
245C
F292
0427
EE34
5205
0685
C9A7
5058
FB54
F7C8
FD8D
F43D
C105
1BC8
1459
EA19
FC10
2EB3
C95F
CA00
5382
E8BB
C7AF
3BA5
0C9C
F5D4
C4F2
FDCB
E626
1A50
FB99
D25C
C5B9
1698
CD93
F519
F29B
1F1F
CBAD
023E
FEB2
0B56
E012
20E4
01CF
E687
3815
3731
EC64
1BA6
0DBC
17D5
F864
EAED
2F07
EE5F
FC24
E10C
563E
05A7
2061
FD67
E31C
2F2A
0B6F
F77B
F806
2E00
04EC
23BE
2475
E98A
F6A7
3F5C
F68B
CFA9
FC76
FDD0
D7B6
2255
E92A
08CB
E1F6
0C4F
1070
1A3E
F3B9
EA6F
0CFA
EFB1
AF69
E698
1304
0FD7
17E6
1552
EF9A
03A3
175E
FA4F
03C3
1C2F
F8EC
3AB4
2CC5
0293
11EA
2253
EA6D
EFE1
F028
24F8
0047
E4BD
1532
1823
0FB7
FEE4
054D
C867
F67E
C628
E53C
EAE4
1382
DAB3
030E
0C24
D6A2
0EAD
E39D
F801
EE31
F38F
F810
00F5
09D5
F1E9
1A3D
DCA8
E7E7
E62E
ED1D
32E5
EDF6
3041
B822
F6EC
10B5
2E40
1251
2B4F
F811
BE93
1F7F
F288
1915
00A6
DE3C
F5DD
DADF
06B5
0F6D
F53B
0BE8
27AC
DC97
CE95
E7AF
D0A0
1728
F268
259C
FD54
F30D
FFD2
263A
ED91
41CF
3F2B
DF5A
BF74
E632
0EB5
1CF0
F255
099E
E6E4
118D
F544
F7EC
0165
E62D
07C2
0054
B707
F1C0
0C82
F5BE
1BE6
0251
18A0
02D1
41C3
CB09
0DC0
D429
20E3
D506
17A7
EAD0
D0AB
16D1
D261
155D
BFBF
C99D
D240
097B
F186
19D4
2420
C6AF
D467
0997
014A
EEFA
F1B3
34FB
137F
F46B
D783
DB71
0D25
172B
D478
E99C
0D01
BE0F
BD5F
E97A
13CF
EB06
F23A
E1F0
E11B
0F26
1DBB
19EC
1B49
F669
FC73
2780
F8C7
E55A
DC18
0C58
FC23
F7A7
E528
F6A3
D366
DB4F
3F63
0226
E8B6
DB94
E7E9
F719
080B
EDBE
0F25
E638
DF07
F86A
0AD4
0C73
107D
00BE
4539
157C
0202
403E
AB03
1749
1A97
4905
0C76
066A
0F11
D066
0ADD
F0D2
1EEF
0541
F9B8
FB1D
0FAF
1992
248B
3AFC
E98F
000A
1554
1295
D529
FED9
1011
FC3D
FA6E
09E2
304B
2D2A
026B
F7E1
A292
1C17
295C
1243
0C1A
CD8E
DD0B
DC2D
2950
F025
087B
224D
1737
E9C6
085B
2134
0168
C471
FA75
F9AF
02F5
226A
CFA7
0220
0F89
C136
D708
F70B
ED39
C77D
DD52
0E15
F40E
03D2
01D8
011B
DCCB
0ABD
F93A
1170
FEFD
F80B
12AA
EDF9
02B0
02D4
145D
F972
1524
F1E2
11C4
1A4F
0666
2B69
03F0
0AF9
0EB6
1241
144E
F435
F519
DB7A
0B76
2842
F70F
F89D
3B4F
074A
152C
0F51
03B2
00FA
1397
0E15
DE0D
FEBC
EEE9
B950
C6A9
2327
462E
1055
DA4A
EED6
D958
3734
5681
EB14
0C10
2738
0FCC
DB8E
F4F6
E11C
24E7
E6E3
1EA5
D4D6
DDC4
2CB3
FF86
2E9E
003F
0A59
ED25
D669
26BE
2667
36B1
E7D1
FD5C
245E
0B0F
E770
E19A
E085
2153
DFEA
DB45
1A98
11B1
03B9
F8E6
1480
CD55
DA5C
F213
3144
2347
EF95
E6FF
2CEB
DC47
F91F
FF01
E47A
0AA3
10FE
F83B
0541
3855
DF66
163B
FE6C
FA20
F763
1FA2
D2CA
EB3E
027F
04BB
171C
FF64
21C0
DBD3
ED32
CE20
EDC9
DE7F
ED0C
0467
0FAB
E796
D90D
0B52
E21D
E39F
CA53
CCBC
04CE
37D2
C67B
CDED
E8BF
0A8C
F452
F91C
24E1
F6EE
2F9F
26D1
EFDD
2043
F4B2
03B7
D5C0
DEC8
EF04
2009
20A2
E94E
0EDE
0D74
14DA
FB3F
E5AF
FE65
0642
207D
1003
34C1
F9D8
E006
3482
380A
1A24
1FDA
DC06
CE25
1459
EB4E
0D15
1BB8
FAF8
D24C
E82F
F574
EF4F
FBD1
0E2A
FBD9
0931
10BB
1363
F488
F02C
03A3
E9DA
E0C1
D990
E484
E55B
E273
F69C
EA08
D38F
00B7
164C
35AD
F319
247C
2325
DD03
5C1D
C397
091E
396E
180D
18E7
0E8B
1750
122B
FD2D
FD60
FAF1
F234
EF27
03D5
0676
1B0F
E20D
3098
1DAD
EBB7
D214
0595
F590
E799
F193
2982
4E28
DDA6
0ECC
137F
DFE2
3242
1687
0AFB
0EBC
0830
1CFF
3C3C
068B
3576
0E51
42B7
03D0
0AA8
FEA9
2741
FF31
DDEC
FA86
0786
2A8B
681F
E970
E396
DFFE
FA69
E42A
0B73
25DF
E818
F63B
C423
072E
E985
BE7F
D033
FD00
FE3B
1C08
FA14
1C2D
19B2
1B80
F6C9
29AA
F7A6
BFF3
19BA
3304
EDE7
0A77
F044
D7E9
D06B
1FEB
BBEA
F162
026C
2997
0DDF
25A9
5756
178E
F163
1177
265B
E5DC
C404
B97B
0D6B
E9F1
005B
1657
01A0
2F75
B255
1CA1
0BA1
D85E
E28E
3189
F03C
DC66
0BB3
E866
F713
022F
F538
6164
E1E9
DEC9
125C
F424
FCDE
4370
F42B
E5A6
F3BB
DB69
EF43
00C5
05FB
03C5
1B6F
0233
E8BA
D63D
B869
0309
A40B
2BEF
C56C
F85A
3DE5
E045
C397
D621
F571
EE28
F649
F392
C759
FF35
2C92
0C2A
076C
ED82
2F25
2709
FFCD
F38F
1074
D5F0
E39C
DC9D
F0EE
273E
E804
DE35
1769
1A7D
1FF7
429D
FB6A
276A
1F92
BE27
0080
1306
08C0
1B7F
F6E9
039E
1470
E5F2
D0A5
0A9D
0811
0FE3
08A9
CEF5
F30B
26B1
4181
F716
F8CE
E388
044C
1EE1
E4D0
130A
1A37
06AD
102E
E8B0
EDEC
FE3E
41E7
DD60
04CB
F498
22A1
F4C9
26EE
31CE
FB97
D7BA
094B
0B22
FE05
EA35
FCD3
EFEC
1E44
21C0
00D0
EBB5
F0A8
0AA7
1ABD
F4B0
EFD0
EFC5
25F4
1C10
DD0C
4277
33A8
BCCA
F939
00FC
0A9D
3203
D972
0843
1858
E0DA
1E23
517C
F499
03D9
E469
D4F8
B879
CD2F
33CC
F3A5
EACF
3C86
F9FB
20B1
208E
FC1D
EF59
CEF6
055E
DE40
E522
DAB5
FB3C
FAB1
E856
EE14
328E
D6A0
E2D8
FD5E
0B3D
18CD
07FF
FA1D
ED3B
D068
0EC3
EEB9
E9D0
0593
2CDC
C5F9
E4B6
C2DE
F4EE
EE03
DEE4
F61B
C335
F770
FED4
F368
03E8
E392
005F
FD34
0A46
06A7
F473
114C
199E
EC75
113F
F718
F222
FB76
0CB1
0D4E
0805
E7EA
C9D0
E42A
1F17
1C20
ED07
EF6B
39C2
1688
2196
04FF
F08A
D672
0F4B
D81B
FDCE
FD6B
EA83
CF90
05BF
0BBB
F336
EF8C
DB3C
09B8
F7B8
3778
BB08
02A2
E034
E009
0F5E
E04D
F434
152F
F689
BBC2
E9AA
127F
F058
D9B7
07C4
2089
EEE7
1405
FA51
ECA4
3A45
ED9E
3071
1A54
FD92
0416
EE57
FB40
FF7F
F654
CA36
2C43
0E52
F560
1A67
1AE6
FB54
FA7C
EB15
FDAD
06F0
033A
0A2E
F938
DB9E
E19B
057D
DF7F
0B0A
1B06
2322
0D89
03B8
3695
F1AE
1F0B
FB65
12B0
06CD
0997
2C00
1DAB
E2AB
FF0A
E3D4
0085
00CD
00A1
FD87
FE54
07A9
0181
36C3
117C
1DAE
C3EA
17F3
1BCF
011F
3148
070A
2DDF
E5F9
FD0C
12F8
0980
484A
E8ED
1CF4
F3EE
24A7
0C86
0E04
DCA8
FBA6
F7FD
38E2
FA67
0CD3
504A
2E3E
C3C7
CE44
19BB
DD58
0948
2601
2130
ED2F
09EF
F1D1
0CC2
F123
ECBC
D8DB
2D34
F628
098C
E758
1C8F
FCB0
0BF0
F37E
F879
0210
1EE3
E06B
050B
D092
178F
01B4
21E6
136E
1539
DE1C
2266
D66E
27F9
DEF9
F57A
2B23
10AD
1057
1430
C905
103C
F61C
EF03
CC15
FE84
0D83
199A
F388
02D5
F488
FECD
0A67
B64A
1510
3860
0F1A
0C67
F851
0D6A
F442
C9C3
FF30
E9E4
0FF4
1B91
D1FF
FE77
E802
DD1A
273C
DA71
083C
122D
F1FE
FF7E
E07E
26C9
1A4C
1014
C5F6
FD91
ECA0
DD37
358A
F670
0CB1
18F7
FD3B
0331
4C04
01E0
F805
1FF5
E75C
A7AE
E0A8
0B7D
0A0A
E177
CA38
2141
E07F
D656
04CA
FAF9
3ECC
C0E3
EA7A
E1F3
EEF4
FAC4
3DA3
07FA
1428
C8D4
000D
0FB1
FA81
3C66
FB24
EC58
F7D1
E95E
09D4
1867
F3EE
3883
1D40
0C7E
D8F3
DD73
068B
DC76
D1F9
DF08
F42D
1361
11C9
FEF0
E513
F559
E925
28D6
FC72
D8D6
05A0
1EE6
1201
4975
25ED
1923
ED6B
D996
E6A2
164D
1CE5
E49D
F249
EF67
F10A
F57E
CD03
04D4
0392
F080
1A5E
B572
18BD
1165
CBE2
DEDC
0933
D33B
22EF
F3E1
F9DD
0E2B
E7CC
20ED
F546
CAB8
ED32
1AF0
03E2
F611
0D9C
0E1A
0FE6
F194
F5F3
27D3
EDDB
3925
BB2D
FF65
EF2B
248F
CC9D
D9BE
0E83
DEE9
F5CF
0BDE
F136
E03B
047C
F50E
E0E9
0273
1A2A
1C9A
2FBE
1552
E9C1
FD90
D95D
E119
1A07
FB46
17A8
E2DC
1D33
DE0E
141E
EFA5
1ECB
1587
28DB
1123
BD9B
E51E
0C1A
B8B1
FEAD
E5C7
DDF8
1543
EEF5
F9C0
0075
1551
066F
E9F4
145F
FE4E
E336
067A
0508
0762
0EF8
0136
07C6
F7D8
3C3C
E4DC
246B
3AA7
F29E
35A3
ECD5
513F
EE58
1315
1714
5CC1
3D60
18E7
D231
190F
11D1
1252
F89B
F81D
EFFC
E529
1E54
17C8
16DF
FBA2
232B
ED3C
1E2D
4EFC
FE3C
3338
1925
D803
1417
F96B
FBB4
F95D
F0F9
E594
F832
F59E
04CA
F925
DAD6
0AF5
0076
17EF
0C1F
10FB
26B0
0EF4
CFC1
EFD8
F24B
2200
E74C
10FC
F1D3
1440
D281
1640
2492
0DAB
313B
0F38
16CA
0C36
FE3D
FF01
1C0B
E950
4304
04CB
DCA3
2120
EBFD
D6C3
2B1F
F524
E03F
0570
F802
E9A6
CF45
0EB6
11F0
042A
05C2
0C24
E819
02FE
EDB2
F6F8
038C
4A4C
DD2C
EFEA
F4BC
1675
1498
14DC
0945
1753
1ACF
F797
CEC3
E186
BC26
E9D1
348F
FDF8
167C
E80E
E91C
E8C6
0BD5
FACC
620E
D857
FCDC
32D3
ED51
37D7
BC46
E1BE
29E6
06CD
B9A3
0D4A
F14A
F6F2
04FA
33B5
253F
D3DB
EBDB
E85D
3AA8
F5F4
1522
E06D
141E
0C7F
D35C
E6F0
27BB
EE84
DAD3
D88B
F2C1
1A88
E618
2514
11E3
110B
FDF5
235A
3064
0518
14ED
EA3D
EA6D
2592
3065
FC27
FE86
DCF2
0F36
0290
F2BF
27BA
FFF3
FB21
1138
0DA7
1000
0BAB
56BE
E710
313A
FCB0
DC29
F3C9
2E43
2B43
2A34
2F1D
F711
EF5F
024B
0539
FE36
FDD5
D38D
1530
FA4E
FE73
C31D
E2CE
072D
153D
179F
05B4
1A58
08DE
0F83
E6FD
D100
0A8F
CEE8
0C29
1C17
FE27
064D
0125
2400
023D
CE55
E30A
BD05
CE38
EF2C
070D
C1AE
F22E
D1EB
01E1
BD31
F270
3EDB
CECE
02AD
EF37
E66D
0464
F9C9
45E8
F7EE
BF0F
2F7D
13B8
10A4
1AD9
1FB5
1C28
0301
0034
01AA
0D36
12E8
F1F5
C2B8
2A73
EE0C
F7D4
10A2
0A61
367D
0EFA
2526
F0C3
D964
E609
01E6
08E3
EF13
2012
0E4C
FDF9
D6D9
DF32
DC2A
2110
1FE4
0348
C37F
C5D6
1730
2713
19C5
214A
BD19
30E4
4026
1D0F
31D0
C911
0561
23BB
09D5
075A
C9BB
07E2
EBE5
E6CE
EC7D
1991
1257
00F2
F8AC
30E2
AE1E
E3CD
F769
F1D9
FF06
EE11
2149
110C
EAFC
17CD
168E
F31F
0779
EA58
0C86
08A2
0695
20FF
EE05
FC0D
0C51
07DA
2412
206C
3065
EAD0
DEBE
2B7E
0DAB
14DB
AE36
DE2F
2115
CC42
DE09
105A
448D
E305
DE68
0B68
10A6
FEAA
160C
117F
4551
ED14
D650
E801
0E9A
3B60
DB46
01BE
07EE
EA73
FAE7
080C
BF90
FFE1
393F
DEA8
F1EB
F779
2D84
EA4E
DEE0
1A56
3476
D6D9
0946
F4F1
FA89
1EFB
1541
F807
F51C
2519
1C66
2068
FEFB
FA9A
0039
FD77
0C51
3DBC
F92B
0346
F0A8
BB89
D6A4
FCAB
F53B
18BE
FD74
266B
0E4E
48AE
FF3A
D42F
177E
E45D
F387
0456
1002
D330
1AC4
F16B
2E75
D16B
F8EB
19C1
EEAF
080D
2E1F
FAAB
ECF5
F729
FEEF
0D8A
F808
5209
063D
F6B7
FF4C
436C
45E7
D53B
1690
FAD3
F0A9
2510
0775
E248
0AD8
E472
D6C1
3560
F443
2DED
CF30
205B
1C57
01B1
1AFB
1655
0394
047F
1E9A
2DC7
BA01
2C61
F7F2
F67D
D985
F7C9
FCC4
F533
1C69
F1C5
1D75
D269
ECA5
D74A
B144
3973
F1AA
F274
139E
A7D8
22EF
2049
B791
F046
02B7
034B
1D85
E274
E23B
C60E
0EE3
0B5A
FADC
FA5F
2B4F
20C0
E6FF
2034
0CE4
DD19
FDD8
09FD
207C
238A
D52F
1F43
18A2
D2F9
D54D
21E1
E97D
EF38
3347
F18A
E884
E80A
1B24
DBE0
0B0C
1BFA
3D19
3E26
E651
F8E5
1042
0C72
F9AA
F661
DEF9
2AB9
0953
0436
F675
47C8
EE74
E38E
0C3D
20DF
CD16
1D27
0EE8
114C
1047
EDC7
04F5
041F
08FA
214D
F16D
0E88
3613
1DBF
0919
FC5C
45D9
BFC9
00B8
F19C
F6D5
DBEB
1613
F711
F060
1294
21D4
D2DA
3337
1054
F298
C793
3027
F584
1BAA
FBED
2FA2
008A
F3B7
11E1
FB5B
18EF
DD08
FF1D
FA5F
F7A3
F5BA
E4A4
034D
F14E
05EA
F9B1
ED38
EE3F
F768
10D3
EE06
E920
E67C
18DB
2CD6
FCFA
0FE6
DF34
1DC1
E717
E3C4
0B32
0A48
FDDD
F925
0A4A
07F0
2B76
FCF2
1BFC
137B
EF99
1098
36DF
42BE
D00A
0D90
2516
177F
EBDB
019C
22B1
DB51
0DDB
0A2C
D89D
025E
3638
0F68
28FF
BB54
06C4
1CDD
E2CF
EC72
E0E4
3A04
ED66
CEB5
FDBE
CD5A
F7A8
CBC9
FAE4
E08A
D866
F5D7
CD02
EA8F
070E
18F9
DDBB
E809
43EF
1793
D5A8
010A
16A7
0618
B7E2
0B7C
074D
07FD
2D02
D99E
6A89
0C05
3AB4
0143
151B
2F5D
13BB
C13D
0350
E60E
02F1
2B7C
DBF2
0FAF
EFCF
C300
2D98
B678
7491
DF97
23C0
1151
2412
3783
8001
0DEF
EE45
EC7C
5982
DD13
5480
0E06
E429
FD27
F510
C762
1828
E60E
FDD7
1B58
4780
CA6B
4339
26EA
F2B6
FEBC
3623
EE6F
F6A9
EA46
014D
F2CA
F3AD
0EF0
2697
F440
39AD
0DF4
F0DD
0062
FB0B
6DD9
97D6
69B2
1610
26B7
3619
FA95
FE99
E865
2634
219B
DCA9
7FFF
DBC8
0749
2EAA
F2E4
3600
3315
DB18
FD90
388A
FB3B
BB92
3B21
E888
A03E
1C9F
52D6
FA87
1232
4090
C6BC
26F6
C9BE
1F2C
4E40
CECD
472D
F340
F3E4
BDF4
F0B2
05DC
C364
FFE1
C3B9
2E23
DA1B
E38F
2FA9
E7EB
4DBF
0552
4C04
B5B7
2E0B
1033
2A18
2B1F
040F
4C92
B342
CA7F
EA3F
E404
2ED7
4914
BC00
8B18
AA4C
0085
4D0C
3F4E
B86C
BAD7
4FE2
24FA
51F5
45B5
D2B1
1211
32F4
DBA4
B768
B396
B321
4869
E4F5
3A69
032B
EF00
A53D
4EF6
3D32
DFAF
51EC
B4DA
0CE9
8001
3889
D0E5
3E70
1F38
494F
2908
C094
AF49
0DA5
083C
06D4
108A
07BF
10AA
3E0C
1219
0D24
1717
07A7
09EF
13D4
0D1F
43AC
0A4B
19BA
0798
0581
0F6D
052D
0552
1AEE
0FEA
2EA2
2A10
1D81
09D8
08C8
1140
0706
05FA
07CA
0570
0FE5
0962
14EC
0D10
19C3
0CFF
10A3
064E
1015
09C1
0B57
0D27
0602
11C7
0453
1572
1562
1BFB
0C34
0DAE
167E
2F47
113D
4898
1CE7
06E1
38C1
334F
0D09
2C1A
2946
1049
2F6A
1706
1F81
066D
0C62
11E6
1077
1D84
0CE9
2422
0FAF
13BE
088B
0EB4
143C
10FF
2634
0BAC
2AE6
147D
0ACF
7FFF
212A
15C7
0C76
0523
2D58
192D
145C
3063
0BEF
610A
67DF
702D
660F
6512
6791
6709
7420
6BBA
6BFA
6B31
6E11
6AB0
69D5
6A49
6DA9
75D5
6610
6F21
703E
712A
6D7C
6130
7A48
65F8
762E
75D8
6CE4
6BFE
7BCC
5F12
6866
6605
6863
7070
636D
6B94
6B9F
5F1E
72DF
6E12
753E
665E
6EC5
72E9
6A3A
6F77
5E7C
6846
667A
6477
7F83
6937
7092
6964
6B3E
682F
6AEB
6401
7090
6A85
6C84
6D37
7189
624A
6B5B
6D54
6902
698D
6E20
654B
6E38
699B
6BCB
6B68
68F8
6B17
7FFF
61C8
71EF
6CED
690B
77C0
694E
7CAA
5E74
7BF0
6851
75C5
6E62
60E2
628D
781D
73CC
6DE9
6751
E356
10E4
DBDD
BE69
160E
FB8B
0CD0
DD7D
E275
AB28
13A9
552B
27CF
0B35
1067
0793
F0AE
CE4C
0D0A
04AE
02AF
292D
067D
28DC
2E48
1E03
0B38
24B0
1685
F063
C168
DFB6
0C3D
2E25
FEF7
CAFE
23E6
1543
EAE8
086B
1BC0
2A74
4336
16E5
026A
0855
0FB9
4422
29B0
2F75
22D9
0901
0514
234C
15EA
CAD3
07BB
FB53
DD21
FCF2
19D4
B433
DD66
011D
DF33
DD06
D5F3
E8D6
F905
FC58
368C
4FD7
1FCB
25CB
0896
45BE
3E9C
E484
1891
088B
E693
0E32
E8C2
DA0F
F4F5
BD58
E5A9
2A8D
3515
267C
D1EC
D603
E09E
02F5
E6F2
D2F1
E982
E301
0337
F316
0249
113F
E208
02DC
4487
3AC2
4362
21D4
CB30
C8D4
F9CD
08F3
1FE3
105D
11FE
FC98
C46E
EAF0
CD2A
DBA0
C5EC
DC30
B376
DA76
F8CE
EF07
0A84
ECEE
DF32
019A
1729
23FB
1587
16A8
2A20
57BE
5C61
1BFA
2A49
FE75
F47B
2807
0152
037D
D180
E575
DFC4
E8BE
01C6
1A15
13DA
1A5F
2348
E6E7
1492
3539
22EC
368D
FC9E
D2D2
01FE
ECD5
0071
2FC8
0BAC
3E53
3B06
1398
0D50
1A20
129B
F57F
EB2B
F1D2
0290
F435
E3CA
DC21
D71D
DC92
DBBA
EC37
03C3
0989
1B01
17BF
2BAC
2FCA
304A
CAB7
E482
D9AB
F299
144B
F000
EDB1
F92F
D823
0BA5
1660
DB65
E0E6
F467
192D
F9E2
2C61
6210
F1A8
29EE
2AE4
2EDA
081D
1225
37A4
3FD1
1EB8
E554
E9CA
3684
11FD
F221
D5F3
9626
E013
F1F5
08C5
2D4E
4DD6
4A7C
25D7
06B5
00DA
18D4
FCBA
F719
DDDE
E835
16A6
2AAB
19E8
00AA
E545
D3BA
BE52
D27A
09B2
198F
1BA9
070F
E21E
0542
170E
9750
E1F5
EB9A
BDDF
F060
F308
14CE
07B5
FE8D
C9B3
C128
E133
D4D5
E93E
2353
26F4
24AF
2BE9
3B10
1CA3
EE92
27A4
0158
F6D3
C125
F3AE
F9FE
D613
EEB8
B9FB
C87A
F3CB
F072
0FDA
0213
DEC8
4438
255F
DB35
1CB7
031E
C52C
0669
F616
D9AA
CA3A
BC12
DD43
EB04
FB16
F2D5
1617
DE48
E0CC
2EBB
3893
ECF7
FBA6
DF9B
04E8
17B9
2128
34D3
18E6
E7DC
EF4E
F879
C3E3
C465
0532
0DA6
EDCC
1EF4
EC97
E324
D83D
C076
F898
EC98
0D85
1B4F
D5EC
E509
1677
406A
27B3
1953
464C
11A2
F3F5
010C
FDB9
E706
C1B6
2909
2E4B
CE1D
FC96
D96A
2B26
20E6
0953
0EE2
18DF
25AF
3091
32B7
0FA6
1A77
20D7
03ED
D441
DD30
0553
2696
1C75
DDAD
282D
2D56
053B
FC73
2B15
33F8
218A
1BB2
F826
E551
FF02
D414
EEE7
E1DF
EC1A
FA96
B98F
BF6E
2AF1
2E38
17CC
17E2
2409
2135
DF96
E7B4
F736
2FC0
3B7D
29BF
165A
E100
CC86
F702
F6D5
F568
F13F
09AB
2FDF
0B17
F0F7
260D
0B90
1ACE
3005
F534
07A6
2792
42D6
44AA
1E8D
F11C
EF0A
FB5A
D8FD
07E0
140D
440E
04F4
F9F9
029E
C5DC
15A5
1322
1931
1FC4
1356
1BEE
2652
18A3
2F71
2654
CB7B
E53B
E801
E484
E61D
C73F
E2DC
FAF4
EAB4
F6DD
D57C
DCE8
2A55
1557
F17E
04A5
EC6C
8001
D8B2
F0BA
E53D
C73C
DC11
E4ED
09C8
2F72
422A
DD86
D4AA
DD91
C296
1069
01E6
0334
268D
0768
1C45
1EE1
EAC6
C2F9
EBCB
4662
40B2
2F8F
1C72
6DD7
1259
1E71
4C04
1098
17D2
1D89
F3E5
F2CE
E0F4
D057
EB08
E394
E685
F3F8
012B
E06E
C9D2
F694
9E78
DA97
CC0C
E863
B0FA
EF5A
E3BF
DDE0
EF4A
022F
03C8
D412
ECD6
BD6B
CC71
C05F
CF8D
EF7F
49D4
08C1
1EC5
FE6E
FE38
16FE
B598
D83D
3F72
2D4A
1DCD
1780
2E2F
1A0F
F5FA
2D3C
0C42
4C0D
39FC
1017
2245
3EDB
1F9D
E0A9
2466
F2B9
DE39
DCE1
174E
0D04
B91A
D69E
EE73
E26C
AA08
1627
EDDF
C5B7
850A
C961
0198
F8FC
09A3
048B
2FAB
26F2
1D22
1E45
2772
044F
0606
1580
2860
0157
0DBA
20CC
0F2F
FB6C
2662
EBDC
0233
4BE6
3CC0
1B5B
23C6
4F1C
F0AD
255F
0515
0B76
24BC
2877
2CA4
1480
27D8
F5BC
0A17
254C
1DB3
21DB
E3E3
EF09
F325
BBCE
DFDB
ED1F
05A5
FCDE
E6F3
F9A3
EE06
F43B
FC15
EFE1
E182
2108
49DC
364D
E9D4
3934
4B65
23A0
1902
FF96
F08E
092A
185A
FDDF
B1C6
D938
C781
D3A0
0F03
0A5A
263C
19CB
00AE
E1E5
DD1E
E890
CE40
B8C4
ED65
F80A
EC91
FEBD
E316
F181
D085
D03B
E56E
DB64
EAB0
D707
EF0D
DBBC
ED52
F87C
F9B3
C174
DD5B
C7C0
E03C
5102
1DF3
0798
282C
F744
16A1
3054
161A
F7FD
D65B
0132
F181
F044
F027
0720
FD69
E12D
FB1E
2F74
2456
23C7
112B
15E0
45A0
F26D
DC79
14AC
D5ED
D7E8
F044
0C48
33FC
3722
2B11
F50B
D55B
AD7C
C4BA
0354
121F
FD23
0C36
1924
E41E
32FC
DBC5
CBAF
C873
C336
E9D5
CB30
E3D4
FC70
EE79
2387
17F1
1A3E
1B7B
3185
35E1
28EA
1079
0412
34D2
3EAC
1303
EBC0
285E
2C02
1239
11B4
F282
C8C1
D9EE
D2E2
D34F
E37F
FC9D
0E4B
322A
2892
1603
246B
109E
3409
1EEA
1244
2020
215E
2506
F26A
E8ED
E270
E107
D225
D80C
DB43
DE3D
EEE4
011B
E89C
5C50
EBC6
F2A2
0D92
C67D
4714
F1C8
B401
CE60
A0F1
C576
CCA3
DBA6
CBF6
EF14
11EC
EFFE
0619
0B1C
35E7
29A8
3BDD
2CDA
1D2E
E55A
A8BF
D128
F1BF
C706
E3A4
10D9
F2B0
0BCC
40CD
21A8
1AFF
41EE
4636
1404
0E98
07C1
F01C
FCA0
3142
F265
DD02
2553
FF85
218A
0724
13C9
1BD2
F323
0F25
0C3F
D4BB
1010
231B
3132
51B4
684F
3489
1F3D
1324
1A92
0CB7
15DC
0EBA
126E
27CB
0A8C
F255
007C
FBA2
CA56
D9C6
C552
EB3F
DA47
C056
D781
F0E3
ACA8
CF06
1546
CF99
E9B1
094E
06E3
CB5E
ECE0
F7E7
0860
6BE4
1F65
0082
E6AF
D5D0
4BF3
0339
0303
2212
046C
2105
0520
ED00
D100
D682
788B
EBA7
E5BA
2633
F119
64C0
0160
1453
1403
D248
FFCA
1FDF
106C
1B71
2E52
F1EC
1B9E
DE1D
E214
2B3E
2DAF
2EA3
338D
08E9
F2D7
F70A
EB0C
EC5B
EB82
33B7
18CA
1482
2592
D67A
D1F0
FF38
FE51
3483
5227
F75C
14E3
FA3D
35AE
E50C
450D
FC00
32C4
E1F3
F7F9
364C
27A2
01C2
03D8
DC15
DECC
3061
10BE
F357
1368
022E
24BC
377B
FAB2
EBAB
0D48
FA41
27EA
295D
2F57
E475
F9EA
2D68
FF14
010A
0364
FE1D
04E3
0F4D
F502
1E5A
01D1
D5FA
2FA6
FD1A
0A9B
4462
138E
22BD
E656
7FFF
12F9
DA72
2292
0926
25EC
2AEA
F627
3996
D04F
FCAB
0F3A
0A3F
FC49
1B34
24EB
C9A0
17A5
C682
2266
1BF8
2252
2761
FA44
EDE7
4E5E
F904
0265
7FFF
2AFA
B3A0
F9B6
0317
2560
167D
3914
FA34
D85F
6CAB
FE66
C74A
E59C
1A21
B585
D680
8B5F
FF42
1D03
164A
EF80
3C07
CFE8
21FB
D635
0EAD
FBBC
2614
4FA5
A8FC
D25B
A7C3
DBD1
A9E4
E67A
DC12
D13C
5035
D980
B7CC
B57D
D6ED
E35D
C194
57CD
2417
2E99
E00F
064B
CB6D
D8CC
F8ED
FA22
F25A
4BFC
E2A6
F054
0597
14DA
0BA5
D982
DEC6
09AD
BCC0
510A
0857
FF12
18EE
F824
A7B4
0261
D6B7
8001
1ADF
CFB6
CD0B
6BD0
C8A3
1722
D79C
169A
CD54
2769
0AE1
FC62
0788
FFEB
F289
A3A1
1133
BF0D
0360
51D0
AD4E
1ADC
27E1
1CE7
3811
19EC
0DF2
D58F
2C8F
3586
AFA4
D6FA
C510
F1DB
CD78
DB9A
31F6
05CB
B224
B8CC
49C2
04A6
F2EA
5D29
B056
26DB
21C2
FF59
9DA3
2260
F7A4
6775
1C2B
E552
DB0E
3572
2467
362B
254D
394E
5370
5A95
2034
261A
2983
1EC9
2B9F
1DE0
4108
2FE1
1B84
3728
3C12
1992
2544
154C
1B2C
4C6E
207D
389A
267B
5638
20F7
240E
1D0D
1D21
3450
2EFA
25F5
1E34
34FC
27D9
2F9A
1E71
2626
35F0
1D7C
3058
64E5
4CA7
2647
28DE
30FE
207C
309B
2494
1817
5201
27B7
54A2
2641
1A21
2965
25E9
21E2
44F3
5F5A
38D8
2610
346A
247C
42F2
1F22
3C6C
5690
2B10
38CC
3F4B
3BF9
1EA1
22A8
4137
2B36
31F5
22D6
1ACF
197B
1A61
1F5A
1FF1
247E
5D48
265F
3E57
26CE
2C98
56A1
5906
7FFF
1FE9
165E
2C39
1E83
1EA4
2F5F
4109
2273
1693
3C0F
296C
2D82
1B01
2369
38D4
2C8E
4EBF
34B1
2131
3AE1
460F
2915
170A
513E
2262
2D34
47F1
297F
1F08
32E9
3CF8
356A
293D
2555
679D
6169
76F5
77F3
6932
73D5
6AFA
7665
6B09
6655
6799
51D2
6DA5
6DAB
6B82
6B03
57A7
7AAC
6B04
6C2A
6688
6F67
6A13
705C
6D18
65FB
6FA6
6837
6BC1
6B82
674F
648A
6BA0
658D
6EAA
6942
792D
6FCB
6FD4
69EF
6680
6BE3
6E7E
6A54
68C2
631A
6FAF
6E38
659E
5BEA
6FA3
6F83
7848
6BD7
6BEC
603A
75DD
642E
6920
6C5B
644E
677A
7485
7FFF
6AC6
67BA
680D
6DAA
7182
6F84
7103
66A6
62EC
7BA6
6EFB
7187
716C
6A9C
6A49
6405
68EC
7265
6618
718C
72AC
75E0
7F58
7542
698C
7222
67CC
782F
6A23
672A
77EA
6FD7
614B
6C89
687F
692B
4DC3
75CA
6421
6B4B
7084
6CDB
65C2
6ABA
64D5
674C
79EB
70F0
7594
7264
6E12
667C
6451
6E39
5EE8
68B2
6917
6B99
6C90
71DA
6FAA
5F1C
7AF5
74FD
093E
1432
0535
F653
F1ED
20ED
0AD7
0C30
DDD5
072A
F649
F6BE
28F1
060A
0674
E781
D4B6
E1FF
E7CF
0DE5
F9A0
2950
0CC7
20AB
0761
0AD1
F0C7
FA71
0842
1208
F9B1
F41F
14EC
073A
0E64
2F6E
09BA
FE80
E64B
1267
D107
FA6C
EF1F
ED2D
FE2A
29C3
F2F0
21BA
253A
FE1D
FD5A
0CC9
FF80
19F1
E96B
1B8F
0548
089A
EAA1
1576
FF2B
E0D0
0200
183B
DF70
02DC
DD1F
2608
F6FB
1C9D
E458
CC7F
0936
138B
F026
E845
DA77
02BA
011B
0005
2792
EE99
038B
F765
2FCA
F819
08D3
E145
0CB7
09A6
0231
2AC6
4587
038D
DDFD
13CB
1D9D
DED6
2167
08C0
158F
12BF
0252
C9BF
1C4E
2F52
FE31
D63B
061C
01EA
06BF
0645
0699
F7F2
F637
D809
04A7
0985
F5B8
F460
0DE5
D096
06AC
1792
011F
ECA8
15F0
E357
2A70
0E10
0553
F887
05F0
E867
0A11
4C45
222E
14F0
EDCC
F019
1594
F9BB
F6CD
F638
07BC
F721
2360
0A24
03BA
0414
F215
FA85
FB85
DC15
157E
F439
F722
043E
F923
17CF
F1C1
E582
DE9D
E873
F082
0106
EDBE
F2AE
F42A
F819
E346
059A
EE8A
EE12
FB2B
07C1
BB16
E2C2
EC9C
E5A1
DC56
F4C6
CE38
08CD
F9F8
F7DB
18DA
2C33
E9C8
E08D
E74A
1130
0151
CDC4
0A74
50A1
F767
12CA
063F
0D98
0663
1CC8
F383
E7D4
008B
1DE9
1779
08DC
DA59
F7F4
E421
FA51
DE93
172B
EB2C
F2C3
1A87
EFE5
ECBB
11F9
1344
D05D
F572
E205
FCC5
FC68
386E
D044
1634
DB78
DD0E
1380
0383
08B7
F345
FFE4
03A9
D1AD
F938
04A0
FFD3
2D6A
F4C5
F916
EDF9
1288
080B
1B54
03BE
0CC7
D83E
1298
EE1D
25B3
FA59
4638
EFEF
05F2
F1F8
1190
E9EC
FC76
FEAC
0E05
11D7
D2ED
0FC2
1C98
FE73
E4C2
2E78
F406
E019
D8B8
1347
EF9D
18E4
E182
28BA
EA7A
3715
F8D6
CE15
CAC6
140F
F59D
2EA2
D00A
0BF8
01B2
09C7
21A6
EDC3
FA06
E90F
F217
E028
20BD
F6B1
1271
1ABE
0157
F453
1EC0
FBC6
0507
00A2
F08E
E86C
0E92
F750
13F3
FBD6
E87F
0C21
E2CC
0C23
FC91
FD56
0B86
F1A7
D8A1
F72C
E135
DDEC
048A
F7EF
0008
EFE8
1B11
176F
1B08
08F4
24EA
2EAE
E076
F0D9
F548
E2F3
EBA9
E23C
FE18
D62A
FD42
0281
F431
F5D8
136F
E421
0132
EE1C
17CB
12D6
1415
1B6E
2DDF
03AD
E7E4
0F5B
1632
E245
2960
E975
2EC7
1EFD
3097
F977
F759
FBB4
0CD4
CC7E
FB42
E4B7
0229
2FB4
D6D9
00A2
014F
F7D1
E543
FD18
0889
F184
F9F8
1872
248B
EDE5
03B6
F804
13EF
F52F
EFD8
DED5
3388
EBB9
1910
F007
21CE
02D9
F1E3
17AF
DD49
F890
C660
0143
1B1B
F0C5
E831
F66A
D6C0
116B
FAE4
06D2
124C
13A9
F562
E5B2
D80D
F22B
1A4C
3B27
10D0
F9C2
0908
F6A6
0E79
E6DD
E22E
EE4F
1787
1BB6
F302
EFD7
24F5
FA2A
ECA9
0CFC
E4A6
3FB3
ED84
F5E8
1024
34BF
F9CC
F25D
CD85
0008
F593
0B4B
17C6
F277
0A39
DF63
0726
0BF4
FDC9
099F
0AEA
3055
0B7E
FF63
44B3
0913
1C09
DF24
0DED
31D7
F93C
F1D6
1383
E8EA
0367
1BAD
30A5
04F7
19EF
CE70
F249
02F3
2499
E21B
E452
1167
0771
1EA4
F0FF
FA3A
EEBF
1BA7
F409
146A
1499
E474
FE53
323D
03AF
0E90
E90F
D49D
044D
F62B
1667
FB79
2B8C
EE1D
DAC6
F5AD
0989
E8BE
F7B3
0958
1D04
0224
F327
2600
EA1A
04E0
EB85
FB2B
16E9
08F1
F73E
054E
F5A0
0022
E885
13A0
FD74
F5AC
ED25
09F1
FD77
0413
29F3
D9A3
FE90
09BA
FD3F
14A1
EEC0
3079
E33A
28C9
0B46
F490
0485
F016
0C41
094C
EF1D
150C
1F77
098B
07C1
1732
F36D
FB07
0D04
E4E0
2B30
BDA4
F396
DB76
062E
0CB2
170F
0471
0E60
F3C9
FF5E
1E61
F5FF
1E7D
0360
E979
0409
EF9C
DEAD
124E
C341
217C
0405
2E1C
06F5
07C2
F0CF
1A69
F1CF
080F
0E0B
06EA
E7CC
E955
0C10
10DE
116A
0F2E
F1AD
F253
35C6
0ECF
BD70
0F29
E81F
33F1
1D0A
36ED
0BD1
1709
F1D2
1D51
0DE4
1480
FD16
EC5C
F462
F9CD
D920
F361
12C3
ECD4
D0E0
3716
EE8E
2400
0EE1
0625
0517
F0F7
0DE6
EBB9
FE5B
24A1
0787
2238
2E2A
E98B
FC4A
063C
0F44
EB08
F955
2836
F4C5
F5CB
2C81
ED03
FF9C
F93F
F499
0343
E7B5
E36C
1B65
2045
21B3
ED08
D2CC
F57E
1603
E183
0A1B
D19E
F4FB
2230
05C5
F40F
273F
006A
209A
0DED
019C
035A
08E4
EB75
12EA
07EE
E18C
FF29
0038
2326
38D6
021A
213C
FF24
15D6
0FC0
FCEF
F8FE
1378
0937
C508
C91D
04D1
F106
F97F
FF1B
F1C9
EB45
0B7B
08EE
F2C9
FE1D
E273
102D
0773
E0BE
252C
1BCC
1EED
08E1
F562
09C3
202F
D2E9
1374
2266
EECF
CA4F
0196
023E
1B0E
06BE
1CED
15BF
DC8E
2541
3769
FE93
EBAA
2E1C
01B3
F6AA
F635
24E6
0218
F9F5
F833
FFE8
CD40
D4C9
14B6
E52C
0596
DA00
FD17
FF77
E4E0
0C03
E838
11F6
F352
DDB0
00EA
1492
ED39
D5B8
CDBE
F72F
13E9
FE9F
041E
D286
3198
0283
10A1
22D3
0B63
F4DA
1135
D31B
D848
FE23
F4D1
01B0
18F6
259F
FD24
0507
04B1
015C
020F
F710
EA88
DC7E
0D6B
FF02
16C6
0895
EDAC
06DE
556F
10B9
FDB5
E89C
F572
F257
FDD4
1B32
02C0
1529
F943
F537
FA91
00CF
DCF7
0CB4
23EB
30F2
FFF2
176A
E2D5
EE34
0241
E442
2433
FC62
1932
FB12
EEA1
1750
D2AF
0080
F483
19F6
0512
12D0
19D6
D867
07CA
F880
2827
F6AF
092E
DB5F
FCF4
0231
0529
FBE9
21D0
062C
1A2B
0674
D757
F6AD
FD4C
0132
FB3D
ED87
ECF1
EBF8
F907
E12D
2531
E429
0FD0
DF3C
F5C1
FEED
B209
EF21
0F1B
BEC2
F90F
25FC
F514
2D2B
E9CA
044D
1DF8
F698
D5DC
0C6C
348E
E08E
E79A
E1BE
10CA
20D8
FD76
1133
E2F9
0440
39C1
EBBB
08DB
15BF
E03B
1E5A
FF60
2D8F
25AA
0E46
2B76
F211
FC58
EE31
E434
EF67
2FE6
2F3B
0F77
0700
09AD
3141
19B7
019C
F770
E358
F3CF
2E83
0838
F78E
056C
1736
FD30
F41D
1CAD
E203
E459
F80C
13D6
25F1
FE38
0A51
0BC7
F6B1
115A
00DA
FB90
01BA
0E0C
1E8E
1638
08F3
213B
2A0D
129E
0582
21F7
FBD2
1C08
2168
F80B
FA56
03B9
FBA6
0B23
E43D
EC2E
20C4
E237
F190
074D
3018
F3AE
054C
E1FD
FFFD
FF5E
0AF8
F300
1491
134F
F98D
0111
D1EF
FD0B
0946
004B
1B1B
10BE
EE6C
19C7
FEF5
0A1E
F6CB
FF10
FDF5
07A3
DB15
F49A
0F7D
F774
FCD2
2528
E2B5
2764
1F45
284E
1482
0D9F
2E26
2241
F482
E886
EA1D
0E3A
0E69
F8AB
2B46
E4A7
E9FC
0A5C
F7AC
0887
E22B
0871
E4A6
F7D0
FB06
C847
099D
1EB0
E2CB
FF4D
F91F
0080
2F49
F29A
F436
FFF0
F192
E7CC
F135
0414
43C4
0D60
FC06
E7FB
F8CE
E9E3
F2B0
1FBE
3ABB
043F
F9E0
F68A
FDD0
1E68
E695
C53A
D6E9
DED5
2E88
14EB
EAD9
EB69
F01C
D49E
088A
19AE
EBF6
231D
EF16
F4C9
08E6
0E63
212C
F2BD
E303
F9A3
0D25
FF78
CED3
0F7B
CD21
0CEC
1CD0
0BF3
05BF
03FA
E601
1168
EFB2
FA87
1091
F5B0
0A62
EFD5
1FF4
0FA6
F925
EEF3
0F5A
0412
F237
1D99
E84D
FE89
208E
FD18
FD81
F926
F454
1F18
CBF7
F41B
0ADA
B98D
34A2
0A2F
193F
FA25
0060
03AE
EA3D
A2A0
01A4
2812
0AA2
0B25
A916
CB41
FB1D
FCAB
19C3
F191
E5D2
FD6F
0973
E781
FA59
DF34
0B50
0F0A
07C7
04E0
E489
EE28
FD07
F693
E95B
D2CD
E6D9
FD91
104E
1674
274A
0666
EA15
FAE5
103D
0DDA
E82F
F3B4
26B6
FB69
E9FA
2587
E9C6
10F7
0FBC
EF34
03CA
0AFF
242A
F556
F5C6
0B78
0561
1C22
DE4C
1886
D4C6
E5E0
04C2
FC64
01C2
0E86
385B
0218
F2E8
FD66
EBF6
F9AF
C624
F802
FBB0
FFFA
DEC9
0C88
0C17
0106
1507
0CA9
1860
EBD5
0A97
1051
0A89
14A8
0D0F
08FD
060F
FD1B
061B
D632
FF9F
E0F4
FC42
DCA8
F555
0DE1
085D
094F
022F
FB3A
DE7B
FA1D
2E92
D495
2B40
DBED
FF46
F134
0CA2
E0BB
259E
016E
FEDE
FBC6
54CB
253E
FFA8
EEAB
DA07
F764
1356
0B55
F3DF
F5C5
C0CA
18C8
1009
EB84
E6A7
19DA
DC1D
2970
EB0B
E529
3427
E956
DE47
FF15
E7F5
0527
11EE
F1C1
0E8E
002B
042F
CF02
170B
02FE
1018
F104
15DB
FD53
DF5D
0904
2594
DF3C
E858
1A77
E53F
0FA5
ED53
F2D4
01CE
EC6F
FBC1
EE15
0C2F
1984
0D24
14CA
1C96
2188
0445
F91B
08A1
CF76
0610
0838
E467
F451
027B
FF99
1E5B
18DE
FCAE
0A95
0525
2E40
E996
25DC
F92B
F8C2
EB10
F318
14F7
12DE
E6EA
1280
21A4
190C
0A34
0CB7
F20D
F3AA
FF6E
0CE4
E225
2B7B
1055
E268
06B1
0914
FCEA
2072
E323
D1EE
04B5
0691
EB8D
D82B
0BE9
0778
E82E
3459
D352
0C6B
0B6A
2945
0A52
DD9F
DFBA
466F
F9CC
1EEE
EF6D
0697
C3D5
0B1E
B91A
EEA5
1469
F9CA
E23F
0DAE
DBB0
F633
F5BB
F74B
095F
19D0
14FA
B284
0A5A
D342
2CAE
028A
F5C8
0090
28FF
1464
EDDB
DEF8
DDD0
07F5
1DD7
1FE6
EB79
FA11
1C29
ED3B
DB82
0A5C
E91D
F426
058A
0E9D
F24F
FA53
1DDA
FB3A
CBC1
FD73
C29D
0783
126C
CCEF
1601
0048
FCE0
0A31
154E
FE08
2B4D
159A
025C
F541
FAAC
13A8
E51C
F896
F702
E5CA
1D8D
3E7F
E831
F5AD
EB2E
1D43
00F9
E2B2
0343
1C5B
195F
0086
F191
FA1F
0760
F129
DBFD
14B7
0A4B
0DB9
CB8E
098E
08E3
CB36
E568
F4BB
06D9
0255
FE87
116D
073A
081C
E203
1E57
071A
17A2
CBB4
10DE
157F
DDCD
E69B
3B43
E5CC
F43C
2A72
2E95
E2C4
E06C
EA96
EF64
F49E
2514
FB3D
F9C6
09D6
FB65
0238
FDC9
F62E
D41B
0E34
1387
E06B
EA02
E03E
FCF3
FD1E
2735
37E1
06CA
EDCC
FC1A
2910
F890
C727
F6B8
03A7
0985
CC96
13A2
16B6
FACA
030A
F6B9
24FA
F6A5
EA16
F8DF
00F7
12B1
0F33
B192
016F
F9D6
E9D2
01E8
02F5
0A4A
EE2F
FEBC
F9B9
FA57
0C57
DE34
0C69
09D0
065F
FB76
1700
D7D8
F496
05DF
FB21
13B6
E084
B75C
1805
024F
1DD2
FEB9
EDA3
2B1D
E9CD
07C7
04F6
F61D
E26D
FECA
E04D
191F
DC95
06B4
DE29
E1D6
0167
245C
129F
0592
0FC1
DF5F
0D03
CA24
D5E6
F622
E56D
E5F6
A6CE
262B
F146
E3FE
157A
05F6
1B6A
E54F
F8D5
068E
128B
0719
F03A
04FF
0FE4
FACD
095F
E048
181E
1174
06F4
1995
F8AA
F3DB
2653
E855
014C
DF2A
F852
1DB0
1E33
D0AA
118B
FDDF
C932
E3E7
F680
CD44
F130
C934
0711
F8B8
F40A
3001
EEB5
FF8B
EF50
EB88
DB1D
E164
F2FC
EEB5
FEC5
0274
FD2C
FFE7
F451
2FF5
0998
0EB4
F70E
E4E9
1D5D
F382
00B3
E741
0EB3
F700
E872
DFFF
140D
E993
E8C3
EEE4
0E8E
E830
E0F2
FC6F
EA50
F559
0B55
EC30
C060
158E
1FE9
3485
EA0C
110A
EB70
EE15
2ECF
1192
F89D
172C
FFFC
FABF
DB6D
D781
DB2C
1062
0048
D8AF
E507
D5EF
D461
10A4
2400
0B14
0517
E133
261F
01AD
0B9E
DAD7
F4EA
058F
F287
E239
D44F
0294
28B5
037F
121C
1344
D958
1C98
169C
09E3
F5A7
D4B0
F6AB
F06F
2408
0D35
181F
30AB
06C4
F281
079D
0084
0C81
EF88
E56C
17F8
FA33
12C6
ECA2
33CB
EAA3
F079
31E0
0C23
13C9
1B0B
0466
247E
DC9C
32DD
E1D6
192F
E184
372E
E6BA
2007
24C0
F939
F904
147B
CECF
1CCD
0215
E2F3
EFC9
F299
061F
E10D
E7DC
0117
D056
376D
0BD7
C757
0A88
0452
E88D
0BD8
0344
1447
17E7
F306
E86E
F938
0D4B
E2CF
F8DE
FAEF
0467
FF7C
1051
F30B
1A2C
CB89
217C
F2DD
233E
12AD
050E
EC25
22E6
298C
F8DE
FEDF
24E1
E744
0B78
D4B0
FEAA
FC90
1910
06BB
FB92
1D5F
0982
05E7
0A89
F875
0E58
1646
0DAB
2EE8
2289
0E0F
E54E
0EA4
EE7C
1A8F
FA95
076F
2673
EB68
E566
E184
E1D0
F345
2307
44DE
0FE1
ECCF
02EE
00FE
072C
1993
FCCA
187A
1A28
F399
E591
0AFC
FFCC
C31C
0DD5
FF65
F089
CC2C
280C
0C74
F406
F41A
0D8F
1125
FB08
E546
F429
FDD0
45C5
EE79
02BB
FCDF
173A
2D0F
2308
E7F1
DE88
F803
0EA1
0325
F0E8
01EA
F47B
0DBC
CE59
01C0
0C72
DF4F
1214
E7DB
FF35
285C
205D
1BDE
07BE
EAEC
F903
F054
FA84
EE36
0543
230E
04CD
FDA4
16E3
0A29
25DE
0954
020C
FD3E
F87E
EF9E
1BFB
E8BD
25AD
0B29
30FE
CDCA
1232
D350
F5B2
1809
E14C
115C
E636
0C72
F0CA
0DAD
FB1F
05B6
1304
DD7B
1E7F
06E2
FB53
058D
E19C
10F7
0758
0DBF
D2FD
1085
04C5
D08A
26DE
EF67
02FA
0816
2E27
1E35
D476
E23C
E1FF
E398
E008
1306
FB81
0FA2
1702
FBCD
02D3
FCB8
1890
FBD3
FF97
0930
F610
150A
012B
EA66
E586
DF9E
F72E
0AC0
EF45
F8BE
EC3D
ECCF
E73E
1442
17EE
0509
1319
0913
0903
0E49
293F
1D70
DECF
00C8
0075
13FF
139E
016D
F060
FCA6
0B83
E389
E631
0FEC
EACE
1C42
1594
F03B
EC84
F03F
4299
D31F
0224
F600
BC4C
EB2D
0BD4
16A7
D66A
1A23
0CE6
05D9
0021
FAF4
D3BC
F6AB
FA67
F07D
0BE4
FDE8
F8E2
DB39
F3C3
F4DB
F047
209C
F30C
FDD1
2393
019D
F63C
E58D
E158
1314
F675
0E0E
1BD3
2696
F2D5
3AC3
D377
075B
0AB2
DC60
0372
21A1
DC82
08B7
1B48
064D
4016
EF48
169E
F9A4
EAE3
F729
1439
0AB8
0A82
F98A
ED7F
FD7E
21C2
F6B5
F0C0
FB5F
0415
16BB
199C
F8D9
F446
EFDA
D713
11A9
07E3
F4FD
1AB5
EFD8
2014
E4DF
CA58
15C5
F27C
ED17
EC23
3682
EAD9
1984
2D6B
1FAE
F570
FFB4
0FDE
EACE
00C6
F0C1
F6F1
1919
1E1F
0BB6
FD83
E290
E93A
E5DF
F8D6
0CC4
EA2C
E9B8
DB2E
1222
0173
06B6
06D9
00EE
1D4E
174C
E2FF
DBC8
1A5A
21F0
E50F
F11C
F026
F8CB
15C8
EC83
1CF1
EE6F
0083
0D26
0441
13D0
0BEC
E527
2845
1A56
27AC
DC9D
1304
0A4A
03E4
260A
0701
1DB4
EC5A
E823
E079
1441
01CD
102E
E289
3250
09CA
0715
0F8C
1E76
F8A5
FE54
E84C
031A
F997
F2BB
FAD4
07DA
1AAA
1255
1E40
09BE
34BD
BF73
06ED
DDD9
01E8
E3E3
E2B0
E3CD
12DA
2B23
E65D
1C20
1506
008B
CD9D
E04F
EB16
D91F
1F07
12A0
BE31
F32A
FC3B
1475
D4B4
FAC8
F885
3411
1D24
EB6C
F2F3
055D
0030
F326
F70A
F900
0632
F52B
07F2
F487
C670
FF50
F371
1448
084B
0EBD
124D
D9EE
EE99
19C3
07CF
D22B
9012
FCEF
26A6
DD64
E5E0
E37F
0D08
EE73
119B
E218
FE04
CE71
1BA7
29ED
34B2
FF67
3132
106E
0520
018C
FD7F
FEF9
0701
F687
FEA6
FD3E
0D8B
27D0
081F
0E7C
1847
237C
D698
00CE
0012
2E2C
0D2D
FCF2
20EA
ED5B
DFC0
F7D9
0024
E896
16BD
F998
11AB
30B7
F949
0BA5
E080
024D
E47F
DD55
1169
E9C5
02AB
2CDC
00FD
F864
CCFD
0E11
1685
F51D
2081
2712
F0AF
2871
FD75
E705
DB9B
FE6C
00F6
12CB
F976
F4D0
EA9A
37AB
0988
0480
F4CB
BFC2
F395
0CFF
FBAB
E492
1989
E6F6
F181
02D0
D85F
0646
1241
4515
0578
E142
F278
216B
F58D
0C58
0C10
1008
EDDA
0E71
0664
1A09
184A
FB71
0107
ED24
1E4F
D7BD
28B1
ED52
F0E1
DD3E
185C
F615
D914
F33B
F74E
25F0
05B3
267B
0A11
FF7E
DC25
DCAB
DDFB
0D8A
DB06
167D
F79B
0267
D2A8
FEE1
FDEB
0EDA
136C
24E6
E638
EEB1
FE0A
0304
FF38
044E
F6D7
11A2
03E4
F29B
D70F
F8AD
01A9
E588
EE74
FB23
C731
FE73
1C30
FC53
D430
F141
E801
01A7
F081
D7E8
EAB4
E6DD
EA12
FB52
F667
259D
013D
FAB5
034C
F2C7
FDE0
0178
152A
11E6
F79F
EF6A
0AD3
0523
0616
EF3B
E003
112B
F51F
3DF3
F1DA
1ACC
3B0D
D9E7
08A6
04F3
D746
12B8
1725
EA1E
0943
F35B
3A03
D596
4698
0435
2325
FA5E
E447
E464
F449
F297
012F
E456
ED33
E519
FCF6
DCD8
F77F
0F92
F5BD
0068
EBC4
0410
E6D1
0463
0819
E154
DECB
F51D
1E83
12AF
1033
2406
E5EF
103B
FA16
DBAD
FE11
191C
21F4
F0C6
15D3
1CC7
1D13
0BD1
FE18
3317
FB2C
F6A7
D034
F3D7
C6DF
F113
1F05
DD0A
F1AE
0AA7
0F77
F54E
0632
DC05
420B
19C4
0E03
FB4A
0C3C
29F4
1491
0EAC
1638
F231
104A
F316
1578
E425
07BE
0334
1C64
EF21
154A
0180
0048
09E0
FEB5
1D53
07A5
011D
DB32
F5BB
01E8
0EE3
091B
E370
03FB
DC25
FC96
01A6
EC24
0B1F
03B6
FD61
F332
F405
EB8B
25BB
21ED
D53C
035F
2AAF
0214
01D9
C5CC
F5DB
E7B8
F04B
D879
06AB
CFB7
0CC3
C79F
18C4
0C77
0174
D846
B796
E611
1E32
3B69
2330
F630
2215
FC3D
13B7
167A
FDC0
E2EB
0F8B
F88E
E775
0F0D
E934
00A5
056B
FE6A
CB97
0626
011F
0934
2826
1D70
191C
E0C2
0B08
2064
0E2B
E53E
0670
18D0
0668
0776
ECB3
D7CE
FBDB
E702
D6AA
EFF4
EF95
F81B
06A5
2614
D7EA
EB3E
A9C6
09A9
CB3B
2239
2198
E3E5
2BA3
328A
0100
13BE
FD8A
10C6
01FB
FDA2
04CB
0C79
162B
D5F1
E839
1AF1
F33E
259A
1A37
2411
DD02
EE1E
0C1F
DD46
183B
FBAD
FA3D
FA9F
3612
E152
061F
1E6C
0C47
0EC7
00CD
F2F1
1635
1444
0A88
F36A
F598
EFCC
0563
1312
EB9C
0212
D997
024A
26AA
1CC2
042C
0613
E237
527A
0AC4
1EFC
2654
0941
F73D
E88A
EAD6
0629
0240
067D
FE1B
1E95
1669
3041
F558
319B
03CF
088B
0687
0991
02AE
DF8F
04CA
1756
009D
1FC2
144D
ECA4
DC5B
047D
EEA3
CEDA
E606
F9EA
D585
EC4E
E3AC
00AA
EC51
00D5
0948
F27B
0FF1
EF02
F8FD
D333
F713
3089
17A7
0D1C
38C5
0E62
FF4A
18A3
F2B9
14A5
2271
F8DD
1E3D
DB67
ED07
E518
F899
FA5A
145C
FC6C
0B57
D8B2
0D80
14A3
0463
FAED
0C29
DB5A
26A6
175A
1D66
EE55
01A4
0652
EFA8
EC79
0276
0430
EA2D
2823
10DC
EBB5
D460
00A8
036B
0216
0A2A
F2B7
1A7B
1CF4
F4FF
EB1E
078D
0963
02B0
119A
07B8
F978
1942
F4FC
FBEF
1832
E9C1
F517
23D6
0ECF
09E6
0D57
2FF2
EA54
2354
0978
FE9E
07E9
2325
F81E
23A8
FB06
2780
053B
0773
DD22
FF6A
2D8A
1DB3
EA3F
16D1
F481
F747
DEB8
FBD2
02C8
05F5
EC58
FAE4
F78A
FBF3
0481
FFFF
0076
1842
0854
EC52
1224
0565
0415
1924
12F5
DC83
141B
D35B
05F8
FA15
1E4F
0D11
15D2
2E8C
07EB
F89C
079C
0539
EDED
150E
F40B
0019
E62C
F72A
104F
EF7D
1C63
EC75
DF1B
232A
FFA8
0262
F2BB
E685
EC51
CE68
0052
0B89
E1B3
EC1B
0B6D
DA1C
E879
1334
F17D
D4E4
06B0
0000
1A1B
FA46
02EF
E0A3
0E18
1A42
EAF2
146F
2144
0205
13E3
F0D7
09AB
1BE9
0E6C
C6D3
1E5F
FAE6
094F
E696
E084
32C7
D26D
E401
0CE0
E7FF
0605
D268
2F14
F4EA
F75E
F6CC
1FB9
EB63
F0BD
173F
F37E
FCD4
E537
0D88
0E03
F993
2D8A
14E1
EAFB
E95B
E8B1
EDC9
13CF
0CEC
E408
31C3
CC57
09CE
DBAF
F3F2
FDFA
E067
FC5C
1201
01EB
F3A3
E4DE
E36E
188D
0A58
E385
1758
02FF
034A
219E
0996
F550
11BB
2F10
DE9E
1457
CF86
F27C
EBAA
1D80
F1B9
0E21
005C
1CE0
F1D0
0E2C
026C
1CDE
0769
FC9F
E8F9
EB93
FA54
2642
E710
099D
06B2
F040
1A00
04E6
F8FF
F1FF
FED9
E627
0584
1573
1424
142D
F733
1D2D
1443
25D6
D4CE
F1BB
CE1B
FB7F
029B
0C04
F4A6
F5C1
FBE6
04D4
E407
D4FE
EF92
324D
F95A
CFD3
0EA7
D66B
11FD
13AB
03EB
16DF
CF3E
264D
FAA3
FCB3
218D
0521
FE14
F1BA
FB8C
D2EF
0EAD
0621
E7FB
CABF
FC33
EEEB
0BB8
C6AA
F8FC
2BFD
EEDB
0113
EA12
F6EC
FD97
FDCE
0C80
ECDC
0108
F7E9
1E15
2464
E5B7
E679
090E
FC53
0463
279C
EDE2
E7A9
0014
F829
01F8
EB88
CC10
0184
E781
C1F6
12F1
E803
CDF5
2184
1657
0970
00B6
071B
E42D
E19B
F595
DEC6
E854
F675
E021
1A5B
E39F
F7A7
E7C1
258A
E5D5
3455
0C34
02BB
1FE3
F01F
0BE5
FC50
3E25
053F
3FB7
F378
F6E6
CFDF
1511
E7E8
E63D
DF92
B9A9
DC97
FE82
05B4
DCE5
E91E
F775
FC40
F599
0DD8
0409
EB1B
E8A1
03D6
FC79
FB26
29FD
F362
FB21
EFDA
332F
0D0A
1B18
F679
F8CE
F3C3
04AA
1E76
E338
09F9
02CC
D5F6
01BD
EABE
F7E3
FB14
0E5A
1A79
D900
F63C
F591
1F20
1F91
1F0F
FC20
EF50
08AD
EF0E
EECA
F858
F25C
0CA9
165E
F0A7
0AD0
10E4
0016
F065
FDAF
D732
E06A
F455
C130
0DB1
1395
35B4
FB20
FFB9
EE36
EBBC
