// DS-Conv2D-H1 weight bank INT16 — Vivado $readmemh
// Each line = one 16-bit word, hex, two's complement
// layout=per_tensor_int16
F794
5C99
7FFF
3B4D
F414
F3A3
7257
7EE5
11E7
174A
4530
D53B
0EF7
DC86
1347
1B69
3F31
E553
A7E1
2C3E
10B8
1E0D
0B6A
475D
7FFF
A41C
3182
1836
D66A
FF29
F91C
35BD
2245
AAB6
D99C
7FFF
F2AB
C4CC
860F
36EA
ED29
AA58
A98B
B4FE
1367
9D8C
2958
4DA5
DDC6
5671
1EBA
4B49
20E8
1752
1AA1
37A5
1CF0
5AB9
282A
4D2C
300A
3067
7FFF
50E4
1EAD
3C17
727B
4BF0
315E
6FD1
536A
28F2
24E0
78A9
786B
6D60
79DC
7C05
7943
66A8
692A
74EC
7011
72EA
71B0
75E0
6CA5
67F4
6F99
7FFF
710A
6BD1
78F5
6A80
6956
6753
7987
F85E
EDFE
DE92
0829
0A51
8BCF
F502
CA41
F9B1
ECA6
EF1D
080A
F626
6220
A8B6
EDA2
FE17
0F6C
E04B
0AF3
2D74
288D
F6FA
2D2E
111F
1A17
225B
26A1
D0C8
D1AF
DCF3
DE00
C408
1589
CCC9
05C8
EC3F
1F47
293E
26E5
D80F
0EC7
1924
0FC5
6E94
E7FD
0C0D
0D89
C0E0
F404
14F6
EAE6
13E6
09E9
CDB6
1163
0478
C05D
138D
0BA0
18FD
0FA8
F15C
F0ED
E236
063A
DC19
1497
409A
FF16
B663
F951
1371
2E42
E8FE
688B
D854
F3A8
FF75
BBAC
FEEC
E9CC
091F
0678
23F7
ED55
59D1
ADD5
F42A
FB22
48C7
15AA
F433
E762
1356
EE3B
ED14
252C
3881
3BC2
EC4B
01BC
DC1F
1550
F89F
CF7C
F817
E832
1EF3
2C42
16A8
019D
C4B8
1A7A
F04B
0C8F
FD7C
3C0E
2A50
FF47
D47C
8D2A
D55D
1529
2ABF
F202
F906
00B9
05DC
237F
0625
F13D
03FF
D4A9
C051
B217
E286
01D5
FF0B
D100
CCD5
06E3
2B70
D9E8
2C74
2097
F986
0790
3BD4
D2B6
153F
2DB9
268E
162B
F10C
CC09
0922
0704
11EF
33C5
1823
DFE8
3E58
3AB9
3706
E649
068B
2418
BE34
C7A8
4077
1878
C914
2959
E1F0
FD64
0A97
EF5D
F185
2E81
2BDB
28AB
137E
041D
0DDD
FEB7
F160
FC60
BD85
D0F6
C71A
D616
F35C
D7B5
F966
9787
D15A
CAE8
E648
252C
E06D
E576
ED67
FC54
F54C
E249
0A02
2958
D3E4
F56D
E931
E265
1085
01A9
BAF2
468E
1158
26BA
133C
3E8F
212F
2B77
48D7
F6A6
B7D3
41D6
1652
E9FC
0965
0A22
0C54
FB08
CCDF
BF69
3AA8
0670
F755
0B5D
CA55
DB1B
BF1F
0660
1E02
C6EE
E578
0D64
FC8B
FBF3
1936
0A6B
E903
E9C5
F523
8428
218C
97EE
2B29
1921
137C
B525
E576
D54C
1F27
FCF1
E7D6
F789
C7DB
E86A
FED9
0EFF
15D0
D560
D206
003F
02D7
F9BC
A76E
A463
1952
F832
1FD0
FA2E
F3A3
02D2
F2B1
2609
0922
ED53
226E
05E8
B04B
D018
0272
26FC
398E
0445
E91F
380B
2382
C11D
1E1F
DFAB
A3B0
E3F6
FCBC
F65C
D8B2
D1E1
336B
0B98
0B56
FF92
995E
E074
15BD
BE25
C228
E230
E098
12FF
F827
FAE3
F5BB
E8C7
2C6B
5686
F681
7FFF
138A
2EF5
FC3E
36E0
1BAE
F2EB
E854
32C4
1066
F19B
F406
E695
2A7F
041E
12A5
24FB
2D6F
E408
C069
0C8D
2C25
FEB7
FCBA
1AAB
EDC9
0705
3BA8
F5C4
F90C
2E93
C02C
AABA
0AEA
176C
21E9
0DB4
2C5F
2AB0
4B87
1EBA
0522
1936
EAFC
1A76
2D68
06A1
1162
4F0A
206E
2581
31A4
E9E2
32D8
2C86
10F4
C0C9
08E5
1DDE
39DF
E887
13B3
1A23
7FFF
D11A
7FFF
FC37
0E47
D7B4
CACF
C7A0
B930
E8DE
ABCE
8001
8273
C8EF
81D6
1709
B9FC
AAE1
D82C
2F42
2D0A
CAD1
E119
0C2F
E7E8
CF4A
D73E
CA53
A7CE
153E
3CF7
EF36
5416
373A
CE61
210E
327E
46F9
3CC9
3412
201A
2FFD
388D
3505
6176
50FF
659A
3762
44AF
7FFF
46A7
41D9
4164
2355
2C17
375E
33DE
395A
2F8B
2EEC
32DB
5723
358D
2A75
31E8
4B0D
3ABA
6B2D
6F7D
680E
7FFF
63E7
6288
599D
63B4
6AAB
6AB6
68FA
6A5D
6166
722C
6A29
59F5
68FA
64D1
6423
6A9A
6096
657A
6FA6
5A02
72EB
6549
5F9D
687D
6BE4
662D
4D24
6085
F2B8
D573
2D40
C14C
0AE8
DE15
090B
F855
2E79
F490
D1B4
32F2
E056
106F
4603
1B3D
4925
29F2
FACE
10BC
C783
05C2
9204
0458
0F4C
2498
1C3D
2D20
D5CA
08A0
3439
CC6C
07B9
5E13
8B37
DC91
3391
EB81
094B
0DE2
C0A3
34FB
CCBB
06AF
281C
E05B
BDDC
4650
D045
EFFF
3851
4658
11BE
EE51
E517
D1C1
0C2F
F86C
D256
EACD
192C
F8D3
D14C
2A81
C5A4
351A
A5E5
999D
0FAB
EAE1
E8CB
5DC9
15F3
24A6
DEFD
F31A
9C57
C19F
C901
FF50
C2E8
1517
E8F0
1E76
F151
0100
A140
0E32
1321
C887
5FE3
CD0A
F7F9
2462
269D
0DD7
A358
CDCF
0D7C
0DF6
D011
C4A2
E84E
16B8
3CC2
F53F
1EC2
B5C1
DE5A
F871
B2C2
3F6F
D961
C1A5
0203
D9E4
F10C
0DD9
0E82
69D1
B8DB
BAB7
CF93
C06E
C167
2028
3D4A
EB40
D9DE
D822
006D
063D
02C4
DFCE
28FA
46F6
DEC5
5EC4
EFDA
D90A
0B00
09F4
0F68
C1D5
2D50
ECF1
F191
54DB
25F4
1833
02E0
3D7C
F362
B02C
E6CF
24B7
C522
F985
BD5E
C220
3CAA
E64A
E32E
ED8F
DDB0
E64E
F47B
0E62
AF06
1463
AF9E
F51D
DD3A
D8E2
284E
C818
CE8A
C74A
E86E
637F
F090
18E1
D7F3
1499
0B0B
9B22
36C7
0064
5220
09CE
D2AC
C423
ECB8
D879
B5DA
1AEE
D01D
0E39
FB50
CA69
1241
AB33
E6F5
F231
1563
C700
F7BD
CAD9
E81F
B5B1
C2CA
02EA
F69C
05F1
3AF2
C07D
E91B
A03E
F381
C961
0429
CC93
F420
2C40
F689
C997
C84D
E597
D6DF
8D5C
E114
289F
0C63
FD24
0C12
CB54
ED4B
36B7
F6B6
E221
1D10
7B4A
BF74
E9DF
1744
80CA
2F48
BDBF
FC9A
2A6F
BA03
D070
0CD1
2446
DF99
D832
C4B8
16B7
3EF0
108A
C019
0655
C215
F6FD
F7E7
09F3
2E6A
0263
18A1
3245
AA3A
8610
1830
1B64
DA9F
FD61
1638
B85A
B63F
E681
BBB4
CCF3
BBF8
0631
F039
AC95
DF20
E6B8
1A69
DB6E
E49A
E670
2143
F3A9
3740
D22D
313F
F05A
199A
7ED7
10E5
19B9
28BA
049F
EE73
13D5
9F0E
4F02
C506
293C
0017
B654
E29D
2071
D8CC
E5D8
3299
CEC6
0D5A
DB44
F754
E544
A207
FA05
1585
1149
E37E
7372
F647
1DDB
F27A
4434
8800
9339
E59F
E784
0C1A
0C41
B7B8
4D9B
DB6F
FE59
FCC2
B0B5
2527
D8A6
ADC2
E6C2
11B2
1FDD
DF38
085F
AD9B
1233
F87F
CB9F
21A7
FF16
D7AF
D581
B6EF
C027
1E39
2F61
1E68
0B09
03F5
105A
F407
C99C
CF27
F722
0F35
CA07
B141
E2B9
552B
04A8
A453
3266
B131
56D0
FE77
0BD6
E111
F7E0
E956
EDB5
D4B6
2DA1
6082
47F0
FDB4
FCC2
BBA0
24A6
E4B2
1F28
43B8
378F
F8C3
E4E7
EEBE
369C
201F
06D8
F79A
179A
2A31
F94B
54B2
F5EF
1D15
7284
2434
4C47
3744
121C
B593
EF3F
A2A2
0656
FD09
DDBD
2578
DE34
0AD8
F885
1BBC
ECDD
E490
FDE8
1E86
E495
C608
E047
FA61
2D2D
E640
F177
CE60
AE3E
D717
0404
2965
07F2
F61E
0BA1
04BE
A56D
FA59
3FBD
E333
3B00
F124
FB53
DD12
DC6F
0739
EEC2
E200
1895
0E64
C530
C1C2
1E17
49CE
03E3
072B
CD6E
2440
FC53
11DF
ED52
1680
0691
A3E5
EF02
40AD
EC70
5530
CA77
9930
43AA
06F0
5562
20B4
272D
168C
E694
EAFD
32C7
DED6
0C4A
F2FA
E208
0034
32BE
E9E5
EA19
F117
F87F
FD50
E552
1B23
C8C6
4695
D634
9F8E
27F1
0FF9
3954
0949
2034
3090
EC9C
D98D
DC18
E7E4
2E9E
1E44
1BF9
29FE
CC23
CAB6
F4F6
BA76
C889
E9E0
E8A0
F55F
0A8A
20FE
CA1E
3CEE
23F1
06AC
D85E
E6AC
F47A
5288
AC18
CF5D
D420
F9ED
126F
118D
E7E5
E01A
3BA0
C4BF
D0B9
E488
ECEC
ECAA
E85F
EF0C
3280
E3FA
E236
BA2B
0399
BE41
E90D
7DC0
D88F
B322
EB81
C90B
49EE
2133
FF0B
E985
1492
3B6E
17BC
15CF
D235
C9A5
7914
F25C
F396
1218
D4CD
DF2A
9939
EDC6
E3A8
EC8C
130C
336C
EF89
D015
F37C
22EE
1B5D
0D7D
D978
12A1
D481
F04B
E32D
D505
F784
1899
F6D8
3410
D5CC
A2A8
0447
FE81
D894
9D96
157A
A0B3
F06A
F279
EC3C
300D
36EA
FD8B
CE86
2E17
DBB6
4143
EFB7
0EA7
E5CA
F4D0
5457
EABD
CC49
CD7C
F6E8
A9AA
55E3
20B9
392D
DB6E
D252
30B4
48A6
0F9E
104D
11EF
408B
CB6F
E600
2B85
FB9C
39B8
0C8F
1725
E373
D91F
94F5
CA58
14F4
051B
D652
FB64
2A73
2766
FBC3
05D4
3597
3ACD
41AB
C916
26EC
282C
6002
7FFF
D042
E08C
35CC
0931
EB37
E0A3
DD4D
BF91
EBDD
3A63
1A1A
E0A6
D955
0D82
4005
9F6E
F646
C539
09F3
FFD2
10F0
592F
DE09
3F22
F631
1F67
D6CD
5CE8
FCE7
F0FC
16D8
1054
0E05
D4E8
DDE8
145E
F19E
FBA4
0794
28C1
F211
3773
570D
00D8
620E
187F
EEF3
CC8A
0F3F
D305
1097
2D9E
0506
E890
2DE0
3A24
5751
407F
343A
3028
03D8
412B
E5D8
E73B
9A9D
2BAF
FBF2
A3EA
2599
06B6
0F90
F4F2
BD70
C18E
EC44
0B06
3709
5086
D490
4259
0030
FDAB
872B
B32B
25EA
DD82
CED9
248E
F25D
F359
EBCC
B5B3
25C2
F739
2CDB
0B06
4713
0792
37A1
3C9C
3C51
4F3A
D800
1031
4067
CA3D
00CC
E59C
19C7
07F4
509D
1030
61E8
FBDE
CAEA
1946
35B6
3604
3621
F325
3CD9
7808
EBF9
066C
233F
7FFF
14A7
7FFF
0B65
18C8
299A
725E
DBB0
3296
0C27
FE49
1D13
1EDA
9EC0
C6EE
002C
2C28
020E
316E
5349
2CBE
C04B
E89A
AFCD
8001
98AE
13AE
1677
5421
1B9B
E787
B508
AD79
2012
18BF
10A6
0C23
07A3
1722
0CD6
0C65
0B25
0530
0512
0D77
0CBE
0789
2486
1017
031B
1789
7FFF
2F87
12B6
16B2
1610
2A27
151B
05E6
2768
225C
0BD2
1D5C
673D
694F
2192
0537
6B39
6C1B
6630
6FE0
73D2
6BF7
6B9D
5CAC
69B2
70C2
63D5
604D
5EF4
6835
709D
6D03
639B
65F5
67E4
624B
6738
6B1C
70CE
72DA
7FFF
6129
720F
5E64
6A05
6AB7
6982
64FA
0B5F
EE04
FF3E
34EF
FAC5
DB9A
348F
D448
E67D
5A06
CA44
FF6B
3E5F
DAFC
FFE0
E9CC
0D5C
2D8A
287E
3154
DE09
025E
C269
2D97
2C72
040D
31CB
E8A5
EFAA
D541
E071
3D06
2660
C053
F5A6
1831
FEB9
E8A0
3BE9
D701
2A25
2277
310E
F486
27B9
281C
2EC0
266D
0A4F
186C
F1A4
DFC5
ECB1
D244
2F3E
1E8F
65ED
5A07
1A18
25C1
D60D
179F
C4FA
1F3E
C7F2
185F
E43C
F02F
F283
DA2B
33BB
EEA4
1312
E596
FE9F
22CF
FFEB
14B3
0CA4
1262
C6B2
30BE
038A
E3A7
232F
19EF
2166
FC41
40FB
F97B
FEC5
C82A
FDF1
0B24
F540
F206
FB58
4B72
B8F6
2F97
2C41
D858
18F8
ED42
3E4C
3166
ADEF
15C4
01FD
EBA8
1241
F058
1CF5
C9EB
F548
3460
F287
3016
E175
FF6D
13FC
124C
CCDE
411A
FE7D
FECF
02BC
F93D
366B
EDAA
232A
D4FB
1595
3631
E6C8
EA32
E412
0691
E05C
0AE4
3955
0DBD
2F76
6F95
1982
14BF
FDD1
E89B
FDB4
C6B3
DEFB
C35B
C119
D7BB
1D84
E45C
D8FA
01CE
F5EF
CF5A
E20A
D868
CD62
E843
D608
B8FF
089B
1686
C958
ECED
2FBB
EB64
ACBF
C880
3F6F
04D7
F1A1
E16B
DD92
0378
3D9E
ED1E
FA61
484F
F4CB
CDCC
0ADB
5394
B0D5
C1E6
2416
F57C
E576
E185
1F05
3017
23E1
0C72
C3B5
EFA5
7746
299E
0D29
12B0
0C48
14D8
BB6C
184E
DE88
0A14
4809
027C
1193
52B1
F294
3274
2AF6
DA94
ED51
C468
FD4B
E0BF
E629
0915
AFB3
5EFE
34FB
2C89
48D5
EF45
0318
1AD0
3F60
C9F2
D029
2A22
EB52
D83B
06D2
ECD8
1262
EEDC
3EF1
1C8C
4ADA
4833
E7BF
5B81
22F4
01A2
F96A
0417
EF05
FFB8
23B5
FDB1
4B04
F383
0277
04F7
FA81
EB3D
CE65
1AAB
3CC8
ECFB
2FEA
54CA
1548
F468
E84D
94FE
C3E3
00F3
1763
12F9
FE2A
1621
FA60
11A2
B4B1
D49F
1464
E803
ECC9
19F0
B278
1307
E330
0D1B
0714
1EA6
F8DF
1660
ED39
F269
C175
0B31
F0BB
F643
BDE7
3FA8
1149
0277
E4CF
D9C4
A6DD
DCD6
16B9
184B
C580
B1AA
EC87
D07B
0736
EB4C
EB97
F254
BC8F
D12C
E335
C7DA
C85E
E6F0
A94C
C33B
E5F2
EFB3
0A8D
F522
F1F6
D883
CFF8
C8EA
FCE1
CE81
D3E4
E4E5
D4A6
CDEF
D261
1FBF
EAEE
F52A
F6F5
EA34
18E3
EBE1
F0CA
EB1F
6ECB
2329
065A
0CF6
CBD4
D4A6
F92B
6FF0
FBAB
18C6
F287
FD75
0659
19FA
2268
C849
4609
F73E
AE27
6DF8
08CF
AFB5
3B2D
1BB7
F2E1
3EB4
1CCD
109C
5ABB
2A25
3E6B
0EC1
21A1
5792
CF45
1DB2
0F5E
CDC7
0601
F100
12DC
3DED
2BF9
2000
49A6
1CC0
EDCD
E2F1
C26A
147D
2649
18BF
BD33
B1B5
0D2F
033F
BACF
0C30
B99B
E61C
F550
F442
2E53
28F8
F381
D187
BFFB
0C50
21DE
23E9
F63E
B4D5
E139
C63D
111A
E1C2
DC3E
0BA3
0AE6
8001
2D4A
2B21
B2B3
0E38
060E
D7B9
F994
1AE0
C975
208F
BB1E
21E0
1D74
FC7D
BE58
BCAD
DBF4
E697
EE6A
A6CA
FD73
F789
2B45
040D
4234
6A1D
D971
2DD2
1200
EEE1
144A
DF45
26AC
CDF4
C148
F607
3CFF
0D57
F27D
DEF5
F172
1DBF
2D4B
4A15
ED13
D9AA
E4E0
FAC0
33C0
2D5B
4314
2B9D
2AD5
E9B9
0896
5531
318F
1F82
1862
75C0
23C5
0211
65A6
4420
D997
28A6
24F0
5399
490E
0148
5203
39E6
28C5
543D
6B32
102E
5A3B
4712
D5EC
0503
1F12
17AE
6370
2B2F
0658
34A9
4942
7FFF
146E
24C2
11EA
F72F
73A2
4B43
41B9
BE56
D977
4552
7FFF
9FCC
DF35
2F27
3415
335B
0CFB
019C
B90E
B94A
A917
D790
F3FD
02D7
F13D
2C04
CE8E
D543
C4CD
B407
1641
CF9E
F216
C945
2898
EC76
C226
E048
1936
B305
F13B
0970
46D2
A445
152C
DEDE
0BE1
EE1D
5E1F
C69E
101B
E661
05F3
0053
E494
8001
4043
FF1D
D6DB
4A6B
278C
3A2F
2A0C
2DC0
4891
3A58
3EEB
4130
4F18
2D48
32FB
3DDE
582B
34DA
33E7
4B01
5AD4
3F84
4381
2CCC
383B
3F8F
424B
5A03
45E9
2786
2713
63B4
39D6
1EDB
39C9
2D11
7FFF
25CF
5A9F
2C48
54F7
72F5
5764
3A8D
1E4A
3C81
3714
5F7C
4861
4039
2D63
6ACD
6B0E
6FBA
761C
79FE
63D9
6A8A
71DC
76CB
5BB9
6F72
70A7
6207
69F5
6B49
6D6A
6EA6
63B9
680C
7FFF
6386
6B19
764F
6294
5F4B
74A8
638C
666C
6974
75CD
7434
7653
6122
6E3D
74B4
694D
69E4
5621
744A
7102
7611
7A9E
5CDD
66D1
68FE
660A
6EFC
6A04
DC7F
D90E
0A39
D7C6
1827
E4B7
FF73
E303
E70F
03EA
F53D
146B
FC63
9878
F735
0117
B19C
4F42
D024
EF96
0F9D
EBEA
E73D
3453
F091
FC31
B607
FC85
054B
FF85
076F
0CDE
D0BB
F62A
1E77
0785
EFB2
0A45
C914
F6EE
E592
E8DD
1891
3818
114F
35F2
EE25
0A88
F7D9
11D8
E88D
1282
E060
E3B9
E935
2D48
0EFE
1A95
E013
D919
F548
C080
109A
FF00
08DF
1519
4B30
D5E6
F679
0489
1AFB
F008
1FF9
EF7D
EA5E
E369
14F3
E518
180A
1AFD
CCB7
05F2
CF69
217D
DC7B
4939
E4BB
44F7
4887
ED4B
069E
092C
F34C
E7F2
1C1A
1D41
2834
F987
111D
D609
1982
D7FD
0E31
0B44
15FC
DEAB
E17C
F880
2D5F
180D
1FFF
F7E4
FF89
DE1F
1147
2786
F187
4BE0
E63D
3E87
DEFE
2DFA
04C1
D0DA
0ADF
0064
0A04
4556
2223
F673
F41D
277A
FABB
F8C2
1F83
2F5A
2AF6
E21E
1BC1
D7DD
F68E
B24D
F626
0AF7
1062
F47C
1335
1242
FDEC
F755
1026
2770
3E83
105C
05F9
D1CE
0DFD
00F5
F800
1C89
1316
FDF3
E00E
41FF
0766
DFF9
DEEB
18FD
2E6E
D699
0B91
E6A9
2353
1A71
2073
CA59
03F2
10CD
F174
0035
0072
FCA4
2189
EDF4
16E5
BEC3
36D4
FF0B
DEE2
D1D3
6015
C182
2291
29B4
213B
BC1E
F137
D6A1
1F41
DE6C
4E8A
F7F8
EF3B
141D
5F85
0497
E53C
E3DA
C789
E7DD
2B58
AF4C
0DC2
0BE6
DEFE
0CE3
2543
F820
E212
FF46
F06A
02F3
1447
25E8
4F63
0A41
0B3D
ED92
E291
C13A
E275
0302
DE6D
FB9A
0FE7
E147
CE5F
F841
DDB4
3A13
F782
F31A
EA23
12E8
F36A
1BCB
D13C
0F1A
07A2
DA41
02ED
E094
00D4
E661
C7E4
0699
C44A
EE24
F917
B1FE
ECBF
FA57
F876
3680
FDC4
02DD
03B3
1838
F488
0AA1
1171
DB30
D63D
2AB4
DCD4
F324
0F75
EC32
F9D9
F5CC
CEDE
1755
1ABF
1DEC
2EA4
DF1A
A83A
046F
03C3
025C
34A2
BBAD
DABF
28EC
DED4
F138
EF29
FF47
290E
C4EE
C5FE
E2B9
06D8
FBBC
B1B7
E3AE
2928
F585
1C41
0607
E286
0D6D
DF42
EF3F
B372
0F66
E762
FE4B
0B5A
144D
FDF2
D2B2
2B73
BFAC
E3D6
1790
FB2D
BF23
16B8
3FE6
D571
FE1B
F903
EB28
22EA
D1B4
20A3
0583
1DDD
404B
F9C8
F3AB
F7C8
0FBB
1822
0046
E268
EB3B
F5E5
EB5A
E5E8
E93B
F930
E677
148F
E47B
F7D1
0B35
3937
0F24
F1FF
0544
EDCF
EC69
FBA1
FF81
3275
D573
CAEE
1C9E
17E0
DC2E
DC84
D771
155C
0589
F5C4
E31B
4A9D
420D
2B46
D425
E573
D212
DE7C
1323
2294
3305
1EA8
1306
3825
1080
18A3
2370
3979
D18E
EB3F
12A9
90DA
40D1
1B92
2416
B242
FB32
F430
DE94
F657
E7A6
CE2F
E5A8
F905
BC36
F5B2
1B78
0184
DE52
30A9
F75C
14D1
2632
035A
D4F2
340D
39CE
0055
0422
E6A4
0869
F410
F776
424E
C3FD
DC6C
DE7A
34D3
DA97
ADFC
EBDB
CA09
2BC9
25B1
FB4D
D25C
42D8
1614
F050
F3F0
B9AE
1C05
1291
E3CE
CC4B
03DE
1079
3A39
FA8F
3A03
E460
1A88
C772
C555
EF9C
1E5C
0B7B
E9D5
12D4
6050
099B
0E2B
FC14
25A9
1F91
24FC
2591
1E05
DA70
D124
F632
E467
CCB7
EAB1
D715
DE7C
0AF8
DDDE
E27D
E2D0
0B6C
B719
0800
20F2
2DA3
0849
1A0A
4C0B
FE8D
E2F8
25AF
F3A5
F3CA
1503
D015
091D
D6BB
210B
326E
FDD0
BCB9
D3EF
1E42
F989
A7F8
3130
198B
36D1
EA9B
29DC
EDB9
1E3A
189E
2835
03D6
114B
C6BA
CFF0
EB1A
BF1E
EDD8
EB5E
1648
197A
E3E2
188D
0AE0
29E7
EB24
A8B3
DD54
BA7A
1292
06F9
BF09
FE87
E0FF
E32E
9D6D
0F33
1862
0DBA
E70C
377A
E2C5
EBAF
30AC
250C
D589
CCE6
388C
EC16
E1B1
FCC8
A8CF
0D98
E52D
0A45
39EB
D476
02B6
CF35
1D37
04EA
C1F4
DADF
0143
0C40
DEC6
0F70
C66C
04EB
C0C1
EF45
EC27
D16C
F052
EC2A
343F
0D3F
2323
1E6D
F84F
267C
EE2A
1316
E785
E480
F563
F712
2ABA
EEFE
DEA7
D1F9
1640
B103
E015
3930
F7BF
DCF9
1073
CC70
C1DF
FA72
FE24
47C2
F168
21A3
2123
023A
213D
38B1
1A39
E65B
F6E5
163C
C6DB
1EBF
1667
E5CF
0875
E8AA
EAB4
4A12
F645
B038
182D
1772
E8FE
F880
BF4F
56ED
047B
EFE2
C04A
F048
DAE0
E565
24B1
F1A9
09D9
E39C
E227
BB5F
FBDD
0ACA
0220
0D6C
1DD2
E641
F7A4
DA64
3B55
E0A7
000C
2066
166F
2581
0E87
E0E0
FE92
CE23
EE96
5240
03D0
2C21
3C1E
394B
C2D6
49B7
21F6
D880
DBAB
E7CB
D06C
CA2B
F043
F507
FF89
FA1E
1B9F
F03D
F32C
E9CA
E23A
320A
E531
2AA4
F76A
ED55
132A
12D7
D2FA
F7EC
C3EC
F394
1D49
DE81
1EDB
F416
F045
09EF
FF60
02A2
FAB7
B5BD
1F3A
B245
EC85
0DBD
EB4B
FE14
2F4F
E88C
1DF4
0DEE
F46E
3024
CA5E
DE34
1E43
CB73
BF14
064B
F9D8
F235
107F
F1FC
1162
CF5E
F69C
2DE1
1E06
27C6
DBF2
42AC
045C
21BD
F479
F49C
1550
2E2F
DA72
5138
0000
FC93
F802
2BDE
B95F
E76A
F55F
0861
23B8
1F94
D3CC
F99D
BA77
BF4D
0EC6
23D3
0664
0984
B41E
3121
B5E3
29ED
D6A0
0AB2
1DD0
D2CD
1714
18D3
15D8
21DF
FDEF
11A8
03D6
C77E
0F13
5257
1C74
DF78
E350
076B
C350
440E
07D9
D4F2
E965
2D80
0BD6
C25A
0B97
EDE2
F7A0
CFC2
FAEE
E9A6
2605
09DD
FCDB
10D0
F11E
DD55
FC71
AC4B
E3CC
F138
B728
ECF6
2840
C498
F5C0
4CFE
174A
1579
D227
05A4
1241
F14C
0980
F23E
33AD
DF42
E8CA
1253
2255
FACB
062D
C1CB
FA73
F51A
ED60
217D
0F49
F9F9
3977
CEDA
F4CF
180C
F3BA
FC7D
07FD
1323
B921
16ED
DE52
FA5E
E817
D151
ED46
F1A1
3810
2267
E7C6
E51A
E314
0971
E6A4
1C7B
0E8E
2100
E167
1590
1048
D88F
F51A
F39B
0FC1
0DCF
4BEA
0F58
02CF
2324
F336
14A1
DE39
1307
35CC
FB16
0EE6
277F
EF14
E5B3
F559
EA6E
F729
DE25
D462
DCDF
041B
C4C6
D46B
D806
E098
FF6C
B21B
00C0
2227
F876
2C59
B910
1532
188A
E141
1D37
BF7A
18B6
B33A
0B95
EE62
EFD3
2041
0B5E
BB80
0BE0
DEAE
EF48
372F
E4E0
0CC5
C6BB
5009
DA50
2B6D
FA76
DB1D
F989
F534
3271
E5DC
FD57
DED2
38FD
FB71
E463
E33E
D28B
FBA4
3345
0D22
CA64
0F81
F684
C12B
1BA8
168C
FBF9
19DF
F155
EA5A
174B
2D60
031B
F9F7
DD2A
0024
1B5E
0685
0D3F
FF19
EAE1
05AD
D02A
214B
1E69
03C1
F81C
17D4
1636
F221
C4C9
2960
1D32
25B8
E1AF
00E4
FEBF
F6E4
0895
D8E8
F843
F612
3EA5
F1E5
4AEF
0A66
F6AD
E75E
4DDF
1A3F
0BB1
F1AC
01DE
0D70
1CEE
24B3
1861
F15B
D173
09D3
0DB9
0E89
E8CC
E266
11C5
E3C9
2851
E73A
44BD
174D
1C7D
D6D9
0508
217D
BEE0
13B2
1C98
0126
E4DF
E1C2
8CD2
F581
087A
E307
0379
E589
1130
09B0
F1E5
ED6F
D192
12F1
2F10
DBE6
A825
E948
254D
B490
13E8
F63F
D58B
0DCE
172B
0B58
E81F
1278
0044
FF77
F18C
E343
B0D7
F965
CB3E
FF53
F824
FB29
236E
FB56
FB95
5F78
FABD
0433
1AEF
074D
0A61
0A47
3A7B
FF2E
E16F
FB73
1CC9
E127
7FFF
6F88
9494
C799
ED0C
1DA4
2288
F8FA
D49C
E82A
287E
FE6B
D2E7
DEA9
5374
1EB2
F42E
FFD9
E790
170A
1C4B
EB6D
CFEE
2468
C5FD
0C6E
B5B7
1B9C
2E1B
29A2
0648
F6E9
F254
1594
F987
D587
FE98
E7A1
EF4F
EF76
B189
04DC
DAD8
173D
D573
1CA7
084E
1AF1
4EAB
D31B
26E7
2E9A
DA77
D983
3D33
2221
2B65
CA7E
FD5B
CCD2
ADB1
087A
CF41
0DF4
565B
D576
EF11
0DD2
F722
4890
FBE7
03BD
1A62
DEE1
D304
D6E7
C526
094A
FD38
021E
FA88
FF81
F0AD
2D0B
2DF3
4262
EC63
043D
1BD9
C442
E3EA
28FB
D41F
0CDE
193C
EA1E
FC7C
2C51
EEFD
D3CC
F9FA
4C78
F9EF
09A6
3DC3
266F
E49C
EB91
0170
2FA0
1BBB
444C
FC2F
5866
ED9D
021E
E229
E440
247E
041E
0768
FD1F
208F
2592
194C
F4E2
DD5A
2850
311A
2B76
1580
FF78
BC52
E878
FEA4
0D56
1959
EAD3
E561
FE71
0D0C
E8E3
0D1B
0C32
EC98
F537
EF55
B2A4
E854
2793
4379
F82D
BFF5
DD14
CEF1
DF8F
F59C
2B2C
C8D0
C2A3
15D2
CC04
1617
1FB0
4778
118B
0085
D416
163D
7125
2B53
B252
F748
1AD3
2AF8
E681
E377
EF64
1CB4
EEC7
100E
20D8
FF42
E51E
0D44
FCBA
559D
D599
CF81
BAD2
BD21
1AF4
E275
F772
E2D2
24E1
40D6
1B7E
ECE9
265B
1ED2
0F53
C772
EFE6
DEC1
2019
56CA
ECA4
F5AF
C51D
D551
3912
00A2
0EA5
FC6A
E043
31EC
DEFA
D18A
2EB3
D52B
AF95
063F
110F
0CE8
D17D
3E6D
EE63
DC18
1480
EE2B
2316
312A
E6B3
DBD9
04C9
12A2
073F
28CA
DED8
FFB0
CCC1
244D
0E95
F485
1B43
EDF0
104F
036D
009D
0B68
025B
FBEA
F103
D878
0A05
053D
EA83
CD65
0F32
4B02
42CB
D2B2
F9A8
CA2F
F60A
F9C6
5498
DE1E
FF0E
F5C0
040C
FB07
1284
EADA
1A85
5347
F883
E656
F242
111E
3EF4
09E4
0E54
EACF
C456
F20F
2C20
355E
E2F0
07F3
0A91
FC0F
DBB6
F0DD
D606
0F50
0295
CA95
FA39
F46C
A418
402B
192A
E6D7
EE84
409C
AD3B
E7D7
03A3
0DDE
3D85
3680
115A
FDC0
0792
3B27
0731
C989
D9D6
E7E6
0C67
D16E
1CA7
0350
C7BF
0B45
14F7
D356
F878
0255
9C59
EF08
AE46
FA3E
11E2
CF37
9D84
06EF
E34F
CFB0
BC94
012F
08EB
0551
1401
EDC1
FAAF
FEA7
B4DE
E554
EC82
EE07
25AE
2210
11DE
ED73
40FE
4CA5
D38D
D6E6
F69B
ED8E
E367
3043
38C9
EE48
1858
F199
E198
FC53
20CD
1203
2CE2
3384
D12E
2A33
2813
FBB0
0E9E
0D07
0360
DDE2
FBC5
0E93
24CE
204D
1F1B
3952
ECB7
28CF
E9B7
E97A
5722
EA04
0F25
E23A
D15E
EEDB
2D34
2E53
DD0F
CAC6
F54A
0CBE
077E
1D7C
F833
CB71
FB95
29DF
DFC3
095B
1D14
1048
E511
C5E8
0946
0428
175B
1A56
0174
E17D
2982
EE32
04AB
DC67
04B1
C2D5
42EF
FC0C
FF0C
3DE9
0539
E3A1
FB64
118D
1913
E17C
0444
0DE1
D96E
D44C
02A2
CC22
F2F9
E81F
DD6C
2A13
05FC
F722
003A
135E
035C
0C02
D3CE
FE7B
2953
33FD
3416
0150
3ED9
0995
253A
2C78
1BE0
FDEB
4F67
18D8
6BA2
C4E5
EB48
0340
0603
E4D3
2527
0AD9
58E3
4A52
09E8
5B60
052A
7FFF
1C05
EB01
F451
117A
DDDA
0D29
241C
4E74
145F
5EAD
5C50
F29B
2494
05C1
07CA
DFB5
50E4
0555
14C1
1A2A
497E
7FFF
FA35
4AB3
5ED0
9C84
A5AE
57B3
4B90
92F5
94D3
126A
E765
3DF0
95A6
FA15
C3D1
A2E7
C0F0
7FFF
ACF6
8C69
21D0
6083
5D68
0719
3916
1F5A
8774
4DDF
1A87
0A32
1DCC
FBE9
ABD4
5F0F
52BF
2FE4
9C8F
336C
590D
5443
C6F6
2528
FD41
6D43
F9E8
CF7E
2FFF
A16C
0958
3B4B
4DD1
6A66
5F11
3C28
2027
163B
15D0
056E
190F
1337
46C0
09E8
1ECF
1829
1161
0D80
10FC
7FFF
18CF
3637
1FC5
1368
0A7B
0897
22AE
25E2
061E
1146
1E1C
1B49
17E3
6659
23D5
1AAF
443F
2095
0E52
346B
2F52
1215
1861
49E1
0A43
31D9
118B
2D14
74A3
6FB1
7AFA
708B
723B
765F
6E96
78BD
76D8
6F3C
7421
7948
7864
731A
6687
7102
6C6E
6B18
65AC
6FE9
6805
79CC
7A2C
72DE
7616
735E
717C
6CA4
6DF1
719F
71AE
71D4
72B6
733A
74BA
70ED
7FFF
7248
71A1
713A
6B98
704E
7664
73F9
748A
6ADA
7CCC
7923
050B
F995
DAFE
10C4
02A1
BD18
2617
13B0
E398
16C8
1442
EB87
0311
FB78
EEBB
FA89
2C6A
51D2
27E8
1B74
1D76
F8DD
445C
382D
30DB
FBA3
14E7
1F05
0F8C
10A1
F906
FE2D
E358
CC35
BBA4
C2FB
ED51
EB0C
FE0F
1091
D260
0BBB
03F7
F22E
CE13
F534
0D57
EDC4
F321
C295
EA28
F8EC
EC45
FF70
E286
3F75
3F64
1382
FEB5
F1B6
0ACD
207E
3793
FBFB
EA07
0820
F5C3
FCEB
260A
F869
F614
10CC
1ADE
1777
20DF
337F
1121
F6B2
F834
D789
E78C
EDA5
D3B2
BB8F
DF9C
0165
F9AE
F63C
F672
0AD7
046B
D162
EA4C
CEF2
EC0A
FDA8
D00F
D022
DE87
DA8D
E4FE
0670
EEBF
0865
F10B
0462
3DF3
082D
0B7E
23DF
BF45
EA8F
09EC
EF22
08D4
FA22
C3CE
12A6
213D
2DE6
FAF5
F830
1385
246A
199B
2EDC
1C6F
194D
1FC3
F8EB
F01D
E789
ED5B
14C4
EEDF
CC0D
F4B4
E5BE
EC44
E898
BFD1
F4A7
EF4A
2CD9
29D5
CACF
D7E3
F8D4
F27B
068F
1A0F
09F3
ECFE
F68A
FE94
E5F2
1269
E3FE
D92F
EFDA
D903
0D82
13B6
BEA3
012F
D315
EC44
F5E7
EAD1
208A
D471
D34F
F3D6
E245
F54C
ED58
1F13
175D
043E
FDC9
BD0D
CF2C
D4CF
E49E
E277
0481
07D9
13D5
21C0
1708
187C
1A54
29C1
FCC6
1138
2319
18FA
2B1E
0286
EE20
ADCF
C2FE
F380
D4FF
FF29
03B7
128A
0579
0082
DBC6
CADC
C8E6
E176
0626
E8C8
05FA
DC73
D903
1F5C
ED57
027D
F4F9
E07A
FD5B
19F3
17CB
F56B
F18C
05C2
3A60
2694
FC75
090B
0916
153E
458F
290C
0640
3553
0002
FAEA
121A
064D
24D9
0C56
0AA1
FAB4
05CE
E750
157A
4D2E
0F23
2F69
07AB
EBAD
39BA
E02A
F4B2
0446
E6B5
2579
E2D6
183D
0433
048A
EBF5
F2F1
170E
FFF5
3438
28F9
0085
1EDE
02A8
05A9
EADC
E843
DF0F
F853
218B
1935
15D5
281F
307B
0388
EF88
E1CB
04E8
DEB8
8001
EBB3
EDBF
A213
F7FA
2A9B
F883
1595
0C69
2A9E
206A
1C2D
F163
FD2B
1115
1F4E
0844
EA68
3C4A
F9D7
378A
2562
04A0
F620
0DF6
D82E
DC0E
102B
0D15
225F
25B8
D22A
EC26
2DF7
070A
E8EF
14D0
0AEB
FDF8
FDDA
F9B3
EA2D
086A
03D8
F71E
0BA9
17CA
42B8
1F00
EF77
EF49
F443
2654
3BC0
246B
0901
E144
FE18
FD42
EADA
DC88
D2AA
F10F
EF0A
051A
048D
FD1A
04EC
DDCD
EFAD
0EE3
ED71
BEC6
C277
0687
04F6
EDBB
03C9
15BF
690D
21BD
1B44
0BF8
FFB6
1DCC
07AB
31E3
1A91
092D
F50A
1005
2204
133A
48C0
138B
DB02
0AD2
0349
EA6A
405A
F4D3
0427
177F
F7C2
3410
056D
FA67
E301
EB28
F8F8
F4DF
F14F
E344
E53B
ECC1
E868
CF73
F2DB
2D16
3EFA
37F9
FAE9
02CA
0C14
04C4
FBC7
ED20
FA9B
DE58
10A9
32BA
F9A2
ED3E
1C2A
2BA5
F3EA
26A9
1E45
FA3A
249F
035E
FF98
2AEB
102A
115A
1AB6
2425
ED46
F521
3782
15C0
FA42
DEFD
A6B5
D089
FF21
16A6
E214
0C4E
0899
FF1B
2271
F814
FD4F
DCA4
1112
47FC
E7E9
1453
2611
E5F2
0DE2
1077
278B
F436
376E
E5CC
E900
02AB
D956
1F1C
DE25
188D
E5A1
0195
3767
26E7
FC09
1D46
240E
1B8A
0E26
1B24
1F61
FC59
FAC5
F67A
C3DE
E9A3
FEFE
F609
02F4
12AE
29F8
1DDE
0153
EBB5
F432
FBFA
D7B7
D31F
EA92
FCF2
EBCE
159A
0962
EA65
EDF4
FDE5
2B35
2779
F66A
FF1A
06DC
CE89
1861
410F
1D41
F972
F1D7
F179
ED5C
EBAF
F0DD
EFDE
D1C4
ED86
E6EE
E419
20AB
F76C
FB22
0A6F
03E3
FDE4
0180
0C17
0778
2238
1CC1
0D3D
F92C
05AB
2E2D
0387
FCD3
EEEA
F7C9
03A7
212D
0A32
7FFF
0CFB
FF93
07A2
05CB
1A3C
16D5
F8E1
14F5
FAC2
2A55
FBDB
13BB
213E
47CE
0589
053C
2214
5BDE
07B9
18F0
E0D5
01F2
0C90
E47E
132D
256F
1114
157B
47AC
0DFE
F659
24D0
183B
02D5
1451
09C4
14E6
2634
1F45
1040
2661
7FFF
AD5B
30B6
FB7B
F6E7
EB6C
DDC1
8BCD
4B98
D9E1
E4B9
028B
F7F4
4C13
D775
30BA
B775
E605
CE3E
173C
07F5
1F5A
02DD
A333
F3B3
4FCF
1F49
24DB
11FB
8001
F0C4
EA09
2CAE
CB05
FB2D
C9FF
E49D
FD08
D9C8
1DEA
DB56
CDF1
13A8
D17D
352E
BCA4
2036
42D9
F8E9
F7DB
F2BB
FA70
039C
F432
AADA
B557
342E
1065
4B53
03DE
4A32
E7FD
C619
EA56
F865
2AF5
44EA
327E
2535
3439
256A
32FB
3519
22C7
33EE
2A1A
4F7A
2699
3888
36EF
20F0
2D89
25BA
20DB
36D7
5F4A
2B84
4D8C
2BEF
3DDB
3640
7FFF
34B3
2B5A
310F
5A73
3519
1CFC
2AE6
50D4
49B2
290F
3CBA
3EC0
23AE
5232
2CB1
288D
3512
23D5
2C06
3ABF
2EA2
32B9
328D
36C1
5F9C
29F4
2BB0
27A3
4CFB
1F22
3A06
31E2
3906
26D5
24C7
51B2
3764
6651
7127
781D
743F
7B57
7537
7CA6
73CA
7AC0
670A
688F
739E
7270
7944
60ED
73CC
7FFF
6D14
7192
75F8
65D3
73ED
3A72
763A
71D9
7B55
7898
6708
6AAC
7A22
7084
7998
6226
7E1B
703B
650F
55C8
7AD4
7484
6869
4A29
7CD7
6E1B
6664
7B3E
7298
6E96
77E8
5F00
728E
7226
57A1
6E17
6AF7
65EC
6A18
79AC
70F6
7877
70C9
651C
6928
7403
65AD
13A8
0394
1DBF
FBA5
D5BA
1491
F178
166A
F35B
14FD
DA4C
AAFC
CE0A
F350
D6E0
3E63
D348
CFE0
FAA4
F8B5
E377
DE8A
D264
27A7
47DB
DEEE
2BF0
2B93
FE5E
E612
D31B
DAF5
F140
0816
DCF4
D3AF
FA3E
03BE
CC16
DC80
F080
F57F
1BC9
2874
20CB
FA80
E0C5
C33F
FAF1
3490
F8E5
13BF
F1FE
E4AE
2623
24F6
18A9
E97D
0583
1C1F
E454
D9CE
C6BA
3B4A
2C81
E2E2
0BB1
F079
1B6A
5E06
0A34
FF2D
FF5B
E068
FC7C
1081
C60B
B29B
F72D
0392
2A66
AC6C
3851
E3D3
F555
4C45
0B4C
EC5D
32A0
029D
E5D5
4870
046A
D60A
F5B5
1FC5
13E4
FE87
6A08
11D2
C06F
15A6
F812
DFBC
43C2
DB2D
D7CB
B7A2
E2D6
1662
D9D3
2FAD
2057
13CB
E647
2B3F
E119
2543
D3AF
2B6F
EA24
1CC3
D254
07CC
CF1C
2C60
0587
F212
FD59
07A6
1691
05AB
F24C
D9A1
090A
DE1D
F065
B6BA
13E9
1F3D
DEEB
F0D8
1E70
2176
B790
19B6
2C44
CEC9
F94A
1430
DC75
2366
12D0
198E
285C
DC0F
F369
0BF4
E905
15D5
FC0F
2235
05D3
F96D
2DE4
2E87
0A67
AB9E
F609
2BCB
0874
DDA7
D9DB
E7A3
114B
F2B0
F946
F28E
FAA2
E7D5
E6C0
436C
E2DA
CA2F
FDAA
D665
D0B1
181B
F858
D949
FDEF
37FA
BB77
0C10
A7CC
49ED
0C32
2022
D3AC
3188
2050
F25A
16D9
D951
DCCC
029A
05DF
D6D0
2024
02E4
086E
FD73
BE3F
F1F6
AE99
0C32
405B
F837
D97A
06A2
E993
E6AD
FCCF
14AC
D2FA
FC18
4745
2615
196E
09B0
372E
F2A5
FCD2
00DC
EA71
F87D
F6D6
2849
0AF3
C477
EC0B
2D65
C65C
1F5F
F8D9
DF5C
154A
2014
BA8D
E5E5
E44C
3328
E5D6
1DD4
FC15
0C92
3078
1499
F787
C7BB
0501
0F86
E60C
FED3
F896
22EA
1531
D5AE
CEF6
D305
FD9B
204D
F0CF
F034
D0C0
E999
E2C5
35E0
EF36
E9E6
11CB
ECB6
0545
0532
13B4
F815
4760
BF9F
CE8D
E32B
F417
1636
E200
EFCC
F23D
FF99
2A17
AE47
0D3B
3E6F
0B98
F329
FBAD
EDE9
C787
F00D
E922
304B
E3DC
F2F8
CC92
F5DB
0B3B
ECD2
E61D
EB17
C761
E206
CA44
F98F
DED6
1448
D116
1ACA
DE34
1A8C
DAC2
4F25
E5AF
CEFA
B5FB
F81D
BB3D
0340
D10F
1C94
3F83
F37E
F1DB
E5E1
C86D
09B8
DC40
3712
31A6
F020
21C2
CB0C
D517
4901
D3EA
0625
3CF4
3A62
F313
19E7
D5FE
2544
0DC7
417D
FDF2
0D03
052C
2452
1308
F890
110E
F51A
581C
44EE
0730
3DDA
D5AC
F8D3
FF94
C9A8
D72C
2BBC
AF60
03E1
1FAC
150F
0A74
F598
2B11
0BC0
1E90
0C5E
FC95
EE76
CF47
FED2
30F7
195E
F252
E1F7
F25F
C75E
06F2
E1F6
05A8
C8F5
2C89
CE99
D45A
3435
0D40
05FA
E566
E9BC
F2DA
25F1
E176
0B3A
C783
318C
E788
26EA
031E
0423
0DEF
F428
F69B
1687
E37E
DCE3
EA1B
F32C
2826
2872
A94D
F818
320A
CE03
2B06
BC67
CBFF
EF4F
F2F6
C33D
F6FB
FD7C
F8B1
DF2E
0A4E
0432
1930
071F
F704
D459
DA66
240D
0348
0654
CBDB
F5D5
083F
BBA0
1BA8
F279
E8BB
2F86
CF40
B4F3
0C37
DCE0
BE0A
F6AD
0116
2DB8
048E
1810
2349
1752
15C2
3D91
375A
20EA
F607
3C19
033D
C809
DA98
0EFB
FE6F
4FF1
FCEB
FDFE
20F3
E1E9
0CEF
183B
14BD
0F45
2C70
1809
F218
F1D2
1B42
B9A6
1753
F22B
0820
04D9
E96F
1C1D
EA9D
FB51
ED04
00E2
E4AA
2206
0BE5
295C
CC6D
3C20
B41C
5572
E3BF
F132
148F
25CE
C425
2373
F699
D7DE
EE63
F295
3E39
F0ED
0468
18B4
0C24
E4C0
FDC0
077A
0855
E0C6
F07F
D10B
09B1
430A
2529
1C16
F70E
1688
1B43
4CAA
BA96
BA46
DDF5
FE13
9A49
CD36
F397
E7C0
62BE
27EB
F92C
D23A
C5BB
DE70
243A
3608
3C15
104C
E558
CCF9
DE5B
1193
FCCF
0060
2AB1
2866
1DCF
C885
FFB4
0789
EB5E
CEF3
2C1C
F894
3BA3
19DD
35B2
FE34
F396
102A
FA44
1580
FD18
2CE2
23C5
25B3
24C0
1C0E
1FD1
EAFA
E6D3
F8C7
0BD0
E772
7400
EAA1
D975
4B65
0B96
B07E
D9F5
DE2C
1848
D2C8
0924
D372
0756
5517
BCBC
01B0
D6F2
2619
07BA
EF27
2BB8
2C31
FB3B
03B3
FD75
2027
F27C
E843
9D2D
304E
E13D
1E1F
CC26
1015
135D
DD14
DA1B
D4E7
25B0
32DD
EE8B
2E31
13BF
115D
293F
CB6B
FF79
EAAB
BEC5
BC40
D279
FBA7
F7A4
E200
97C3
218A
F2F7
DA46
E0E2
F6AF
2109
E702
1FEC
0311
08F8
2759
3F53
09B6
01A5
300E
34B7
F780
0E7D
304F
E794
E5E3
F7BE
FB73
1D34
1908
24A8
267C
E0D8
2D9E
DB12
B54A
2D91
051A
0DE8
9A7E
F243
B05C
1107
1730
1522
D4AF
5190
CEBD
22F8
E283
0127
FC89
0B0E
CCF9
D2D7
E70A
1FF0
2A5E
12D0
3707
095A
CD76
621C
0B4B
3E04
1BFF
0F5C
1926
D1F3
FEA4
BDE5
D11E
D3BF
ECC2
10A3
0767
B3B5
F1A6
13B5
0B41
0AD4
DD8E
FF77
D621
0BF0
173A
D8CA
1DC0
19C6
D0FF
2988
E5AF
ED48
CEAB
BCC4
4456
1D00
26DE
F9C8
D6CD
0148
1ACA
DFA9
DC3A
093B
18EF
F6BB
FCAE
019A
FFF8
E934
1769
C9D4
125D
040E
1F93
0574
0FF5
E4FE
2FF4
D5C6
20B7
11C8
2D0F
C1D0
CA7B
337F
1C0B
D7D2
F6D3
F163
CF8A
DE46
C829
D8DB
40CB
EE29
1DEE
288A
FA31
D9E5
EF5E
2987
2FFD
E88D
D0D0
001B
D563
0B1D
33C1
FF58
E708
DB40
4609
E529
14A0
2F0D
F47B
158A
BCF3
17AD
A8B7
216A
D4BF
DE8E
E1DA
0A79
D22F
3BAF
1094
E3A0
E864
EDFD
C5D0
DB08
F8A4
04D0
F554
ED16
00AA
16C3
E45E
ECFA
D324
1A94
FD62
0243
F902
D045
3213
1933
FC0A
FA6D
E849
E775
D65E
FECC
E569
1857
102C
EA63
E5C5
E69A
04FA
25B8
DBEF
DBC9
EC68
4C7A
EDEE
4572
1AEB
176C
115B
0B2D
F116
030E
263C
F4BF
DC44
E58F
E5B4
EF26
3F7A
DD1A
F5E9
11C7
0ADB
F9B3
F986
2B71
01F3
FB8C
474E
34B7
F4EC
0566
C879
DEE4
CDF3
ECDC
D312
04DE
CF2F
418D
4854
0018
105C
0749
18CC
1E75
EE2C
3EA7
E7C2
F19D
02FB
ED35
E344
01FC
0A36
F786
0378
3C08
DE67
227B
F0B3
1914
44A4
1B61
C2C5
C378
EF96
16A4
19FD
11F7
B8CA
4820
D851
C5B6
FD34
EA77
AAA3
3A4C
2CCD
05C4
D816
B24F
1E1F
CD74
EAC9
1E08
07B0
27FE
F517
F362
20B7
0CD7
09F7
1262
ED88
F652
2C6B
393D
051D
35CF
DA39
F889
2250
DE36
E6E3
0F2A
17DA
CD87
393C
507D
4D4A
2E03
41E2
19BB
D6C5
A92D
E534
1DBF
C4AB
217F
F3BE
0735
CF3A
2174
211F
2888
2D54
D191
3639
DEEA
128F
F54C
F50C
265B
FAB0
C663
30BF
154A
C9E8
26B8
1849
FB34
12B1
F761
FE64
243E
CDEC
C59A
04AA
0654
06A7
348D
131E
E213
382D
E7B4
D2F2
F9C1
B188
E785
FFD1
2853
110C
0E59
1C45
0046
436C
0087
0C02
5903
F3D9
0C46
2CEB
CE3E
3165
CFC0
2EBC
2AC3
C209
F818
FC54
ED2D
2580
F411
F872
0DA2
F256
F78E
FF5F
E7E9
C14B
E7FA
F272
FAD6
F58B
2C82
1884
D314
E661
086E
2740
0C6B
EE2D
F02C
E78A
116B
0138
0D86
F515
DF28
E2BC
8597
0E26
EB6D
E0CB
1123
E8D2
0624
BA83
03EB
0AE8
F170
FB9E
0406
FF3E
FEFE
FBF5
07F8
00CA
056E
F4BC
EC11
FBFF
04F8
119F
B273
08EB
BA63
128F
CF0A
0759
15AD
3655
FF42
B273
F9EF
BF54
127B
3358
28D8
F3DF
4618
20E5
E23B
0C6B
0C8E
FCD4
335B
1145
EE0E
6EB3
D7A0
F374
F11A
FD13
B310
FC22
1EC1
D75E
05C1
E0A6
D89D
F868
F8FD
CB3C
1253
BF79
E374
149F
F6FD
DD28
BAB1
F365
0C95
073A
14B2
1646
21CE
F7FF
F6EA
3040
E5F5
D4F5
A5E5
243A
1DE0
1355
2CB3
DABF
5537
2F42
22AC
2265
08DC
2D2C
274E
0177
B2F1
ED13
455B
F37B
0C67
3052
E06F
1B6F
230A
1D19
01BF
09EA
FE50
1CF8
02C3
F96E
EDD8
057A
3D4A
E248
0C6E
2213
C46F
0DDE
F9B7
33CC
353C
0FCE
140B
B18F
141C
D18D
0167
FB34
D9C3
15DD
0AA8
A2E6
E4B7
2AB2
1146
E5C1
F299
176A
04A0
5860
F0A0
51AF
36CC
E357
10E4
E25C
474F
FA07
E641
E7D9
2B4D
2945
D702
DF4D
F096
EB4B
12D5
15DE
3DF6
05D1
E42F
D2CD
0068
F24B
01A6
1AA6
F17D
C6E7
E509
E33A
21F6
0499
CB12
43CE
34DB
F4EF
FD11
1F3E
F752
DF97
66E7
CB26
FC68
180F
2887
5DD7
189E
0279
FC29
F083
17AA
054F
C089
032C
0F67
0EBA
ECE9
B82B
0A89
F2C4
1455
5662
CF25
218A
F242
08BE
F440
F2ED
4EF4
3811
1EEE
0ECF
FB50
025C
0C05
B98B
DB2E
040D
F9EA
E335
587E
33C4
EE3C
A355
487D
BD00
1543
E082
2F72
1085
279E
CA55
227C
092F
0815
0B49
13F0
1B23
EF06
33D4
FF16
40FC
2DE4
D329
190D
04DA
1E68
DA33
F3B4
3C31
0F4B
37E8
D551
0807
040A
C3B1
EBD5
CE9A
FF80
0E9D
B19E
ABEB
DED3
EFF8
2CC9
3FD3
F30C
1E3A
1FAA
F92A
EC3C
E077
EA3E
02E8
CB4B
D458
024F
F519
FCDA
C2E9
1078
0462
1333
FF1E
08BA
C5DD
DBFA
1801
0C3F
FB89
D6A0
0F81
E9CF
F658
025C
F9A8
E9D9
122C
D89F
CA7F
BBFB
1403
2217
DA6D
CB1E
20CC
F933
3532
DCC3
411D
B260
1A43
FE3F
E728
C711
08A8
FBE1
D3A8
09CF
05F6
D450
A5E8
F4D2
1342
DEB1
2990
F96C
29C9
6598
095F
E727
E3F4
36F9
EE34
0302
D980
2FA8
07F0
2085
06B2
3201
E3F8
CF2B
F496
1566
1810
235D
0486
FACB
C807
972D
0A9E
ED5B
1A69
F84C
C268
D991
072A
2F9E
EDF3
D422
DC1B
EF77
B99F
1858
EA3E
FCC1
3004
1CFC
03C1
E00C
B283
F148
1BB2
E73D
3D8F
063F
FA91
4172
D36C
CCB9
F249
0D98
AD2F
D418
D8C0
5237
4795
EFDB
19D8
FC2B
DA40
C3D3
3D01
CA49
D5FE
DD05
B3CE
381C
D4BF
3AE1
087B
5A7F
A79B
063E
0EA2
2190
166F
CD1F
E9F4
2B04
01CE
3AEF
4251
FD9F
F301
FAA3
1B32
0429
D0EE
2844
3050
4615
24B0
12EF
F05F
190A
E931
0B65
D8BD
2CBB
F30F
169B
E9F5
4352
0485
E8E8
0A17
0F21
CF25
096A
2D8C
F33C
17F6
2AD1
A925
2231
DFFD
1299
28C7
1582
CE1D
381A
E63E
F53F
4766
48BD
0DFD
D25B
E623
2FD0
D1F3
D688
1C1C
EB2D
DB5F
05F5
1FDE
0502
DCA1
CB63
E3F7
0896
0735
E716
11A8
C625
64E8
ECCD
34AE
CAE0
5377
F65D
279B
E46C
ED33
FCEA
FAA9
F8A5
EB83
0A91
C36F
DEB6
06BD
1C38
EB49
1AC7
D4CC
103D
04F8
E4E4
D336
C67B
CA83
D53B
D8D6
FF76
FEF6
0463
2AE1
FB97
0639
078A
D55F
F3DD
E508
D548
0B87
C9BA
1AE2
FE2D
E7AC
3704
25D1
C0F8
11FC
FD06
E2E0
C42A
CFBC
D3B1
CCD7
F2F0
4471
27A6
31FD
F821
EAF5
31D8
EEB4
42A4
CDC8
FAE8
3B67
F82E
F1BA
2DED
F3DF
C54B
3B23
2ADE
FBC0
E937
07A6
FE09
0DD9
D599
E929
1A2D
11F7
0DC6
CFD1
1A5B
14EA
E9A2
FA22
3893
B32C
CBF1
0AB3
E84E
095D
A53C
4D6E
1190
F8FF
11FB
0DB5
3A02
FCF0
0528
CEA9
0B5B
292A
F213
2C15
CDB9
F5A3
079C
1DF1
8A0A
F423
FA27
FA8F
07A5
E3D1
E9B3
FB6C
F028
2684
21BC
CD5E
21A3
F005
F6A9
D72E
14E3
05AF
876C
F63B
FA94
279A
F7C2
36B4
0EC7
D803
E1D0
1CB8
FF81
0B8A
FBAE
FC71
EC0F
ED5E
E8F0
2A1D
B9B3
ECE5
287C
21CF
0E88
F842
2090
D65A
FBDF
BB8B
E65B
D261
0E49
E19A
F80F
E818
0D51
97ED
BE41
4F40
5A28
D51A
09F7
521F
DF68
EA34
063D
0311
0481
E360
E10C
178E
02E9
F8B0
18BC
FB95
F169
1DF0
1321
53FB
36CE
F94E
F10B
FA88
EE7F
EFC5
E62C
2645
D60F
DDAA
027E
B26E
35B7
434B
2B03
C4C7
0679
128A
2674
03F5
EF48
F851
F8D6
02F7
EB4F
143C
0CF6
FC42
EFC5
F8C5
E4A3
CD37
DFA3
018B
F96F
EEB4
020B
DB3B
EBD0
EFB7
E6F5
2D7D
3F88
F632
F6FB
F975
FC16
12A8
05AF
D209
0ACB
0D40
2BB4
10F5
0BC2
F3D8
2C36
F8E5
DF84
14AD
D62B
2667
CEB3
1A35
FC6C
04BB
F124
2F8A
DD04
BDEE
F5A6
D92B
EBA7
0235
F108
5098
C0B6
0D66
DE4A
1D89
125E
3F5D
EE94
C4CB
E171
C126
A3E4
E8DC
EC1C
26C6
DF18
1634
0814
48E3
E71C
4920
F174
F2A3
04B6
70FB
3F13
B0EB
0DBA
ED2C
F1A0
CBC4
FC35
D746
38F9
CF89
E52A
1AF1
0905
0640
CFFA
08A3
0CA3
298A
F94D
05AA
E5B4
FE0B
5AF9
FF84
1167
DE34
E37A
0B96
14C9
1983
E2A3
136A
4175
DE4B
FAD5
EE71
D637
BD3E
0922
CE45
A5FF
30F3
F3F6
EF28
22A1
EF3F
1153
0FAA
C268
1A11
068A
F3E5
0212
DFC3
FE85
E25B
E875
F9AE
F46B
F09B
EADA
3588
F9F8
F619
DE0C
0D50
F716
DB85
148B
D46E
30B4
DC4D
0A49
561D
375C
D606
F06A
DA2D
1A69
1328
30AA
0D4D
0EF4
C4F9
06B2
3E2C
059B
023A
C5C9
FDF8
EA0E
E9CF
C775
0F18
EB87
3612
D56A
F6A6
ED6E
FCD4
E9B1
D1FB
CC02
EF17
2503
1D57
1DE0
1061
DE34
B3C4
0460
04EA
F90A
F5D8
F41B
FD2F
9098
1920
10FE
D86E
FB01
12AD
C91D
28AD
0700
19E7
2A53
1E2B
00DF
1A94
FE4A
F8F1
2B9B
EF97
F55A
24B2
22DC
D074
0C50
1FE3
271F
185C
023B
143A
15C8
3C5F
0913
BB67
178B
14D7
19A6
0C2D
DD69
07CF
184F
26A2
AD1E
27A9
E98E
D79A
E826
E77F
E84D
B460
F9EB
E174
1B66
1EB0
064B
D35D
D23E
0155
1743
15F3
E09E
0AD7
1EE6
3CD2
E0B1
0694
18A3
FE21
079D
D58D
0E7F
E50B
DA0C
84E3
F1C2
FD83
EC81
E7FE
ED71
0877
2B1D
270F
0BA2
0484
2B36
DF83
DB07
0491
192C
044D
EBED
C985
39FE
1EBB
F9E9
26A9
07B3
F9A6
EB90
AF00
FEEC
0195
F991
1DDD
D580
C18B
DAA4
FA77
0805
01D3
1C24
0EDA
FE0C
2666
C4AE
0318
2268
F6DD
BF17
2105
FD65
2836
08E7
FDAE
12B3
0886
FD52
FA81
DD95
3237
132D
AB88
E1A2
2B83
1A5B
DD31
FD84
F01A
03DE
6880
15E4
16E1
FC08
1C3C
CBF0
08C5
EA2C
6234
0D4D
0EA5
1216
3202
EA70
23B9
3048
CDE5
F3B7
DF6B
F9C7
29A3
DDBA
3409
F6F2
1F76
F5D3
F8CB
B17A
B5DA
08CB
003E
F84B
FB63
40C0
3163
E333
F064
198E
039A
F37D
D2D8
F455
E984
365B
DE00
FF77
3CC1
D1D0
E816
E129
D70C
FD36
FFCF
0518
24B7
01DB
DBBE
F272
F99D
DC39
18D7
1556
EBD7
F284
ECD0
1672
D333
0C05
068B
1872
BE3B
F3AD
140C
0A2D
FA5A
FC5E
0D5B
1B59
3467
35E3
2402
EEFA
CEF6
FD00
B6BF
2FAA
F8E4
47E7
FF72
10A9
1A18
266C
DB88
EDDD
156D
0E30
4952
DEB4
E33C
F812
D5EA
D765
377E
161C
FA80
25F6
DA8F
C8D7
149C
2337
293F
FC27
46C5
0FD2
17D4
D784
14CF
AC46
EA11
EFC7
BE63
3D7D
0D39
094E
1FA7
28AD
F645
6207
0A3C
E9B6
084E
06F0
087B
F68B
EA91
0192
0182
0FD1
4AB5
CF75
FB17
FC62
25B5
1E84
F5BA
EB2B
F25A
2AEC
0D7B
BED7
E6D5
F781
2A91
D319
19A5
5A4C
058B
3833
EEB4
055B
EC7E
0AD0
E923
FC85
3129
E931
0FC0
13AD
178F
FCE4
F602
4879
0D41
1B47
083F
EC14
F856
FE7D
C733
E274
202E
2AB3
F73F
FE37
E3C1
1EF6
EC01
0DAA
C87A
51A2
0A35
F3A2
AE19
CFFC
03B7
0571
209F
022D
1F6B
D9D4
B7F0
061F
DB31
165F
1685
0DC4
3BF3
20D0
E83D
FC5E
0531
E56F
F681
2272
E4E1
0DD3
0892
F32E
25D7
E718
1E3F
E8F5
0F6F
3E70
DA16
0412
0C9E
CDF8
4530
E967
726F
EBFB
D003
3355
EC33
091F
0B53
2411
198F
D77B
CD3F
C152
2243
CF97
3704
2EA6
0F25
DB85
1DE3
C771
D981
CCE9
170F
0C03
2725
0466
FA91
04BB
D478
FD96
0AC3
E1BD
D94A
D39C
E658
E254
0F5E
D3FF
2074
1205
047D
2CFA
E45F
FB5D
BAB6
34AD
0E58
F96B
1F38
E964
CDD1
1AD4
DD60
CFC2
048A
CCA7
EAC3
C2C3
0DE2
E422
E617
3F99
35CE
F97C
26EE
28DE
1DEE
FBCD
F12C
1E0F
D900
DC28
1519
DD8E
E696
1D77
1441
F08C
FA8A
5200
2806
A770
F498
15C0
0EFC
1069
0A12
CC6B
0328
CF0E
D0CC
0895
0969
E5BE
18A5
5A46
EDAC
FFC4
0196
2D82
1A37
0F19
1829
0563
EBC0
0E23
409E
3F37
3A1D
442A
BC32
F589
F42B
452A
1F09
1741
D28E
1ADA
D3BE
00D6
FA59
FA9E
AC47
4738
BAF9
F33A
E9DA
C511
BE21
0AC3
1F56
09B4
E640
C044
04C6
EEE4
D845
1A8A
0B7E
CAE7
FC80
02F1
0885
E7FD
ECCC
FE5B
FB9B
14F9
D5EE
08FA
01EE
58CD
176E
E5D0
CA34
D7B9
0B4E
E0E2
EBB4
1C95
36E8
D87D
1F9A
2CDA
0D7D
EF12
588A
1A32
16AA
ED86
0CF2
E9BC
25B1
125D
E706
B28D
1E95
E02C
3E5A
3A41
A735
E4A4
1328
4075
1562
CFB3
2111
ECB6
F998
1153
0E8E
CD50
E40A
F7A7
2B1A
F045
0040
D8C7
E881
CB9E
F9A6
0B67
E114
136C
CFCC
0EC0
0773
009C
0094
06B5
0860
FAB2
D068
B45E
152E
FA85
2569
0CD7
0061
4530
D30B
0B6B
FFBB
34C9
1FA5
0C3A
F064
CDD2
F9FC
B4BC
F5E4
1140
FC7E
F6F0
24BA
18CD
EEEA
F571
0BC2
CBC9
FFD8
DA41
0581
18FD
EF8D
EA26
0379
D858
FD7E
D84C
F19C
C0F9
F465
1070
0E26
61A8
1C10
C843
FB0E
FD5B
DF59
F175
1DEC
1B32
F73E
D338
A18C
00FA
C157
E41D
E74D
3582
0916
D382
D6EB
C08F
432B
FECA
0006
020D
16C9
C245
11DB
EAE8
CBA6
F39B
DF5D
E34E
F7C1
01A4
EC36
EA89
F59A
F0C1
362D
E4CD
3662
1FD8
3F7E
F342
F816
1900
166D
F2FA
F6BC
A002
034F
B52C
FC40
FB99
E0D1
F12D
3A71
FC6C
0E10
03DC
F790
F7DC
E125
F44A
E599
EA7D
140E
0573
2C9B
E9D3
0E16
08B2
08C5
02E1
11EB
EC1F
3631
DA96
0DAC
EE6F
017E
EDA5
EEBA
F0B4
EDB6
02B9
2FB6
03A4
E1D6
2830
F10C
07A5
1D6E
D96A
29F8
003D
E3E6
F555
3DBF
E7CD
3061
0026
FBEB
4518
5F3B
E543
FE3E
FA80
1AA4
E820
FFAB
E1B6
FDB4
4B35
F92D
FEBD
EA06
D236
F53E
DA47
4D72
D12D
EA6E
FC13
3371
1997
0EB0
3B7B
17F0
0675
1197
0A68
E063
F173
DCDA
071A
1575
3DA0
C5A1
EE23
26DE
F686
F319
D9FC
3FB0
13FE
0887
C8EF
D114
2862
1DD5
E3F6
F866
EC33
2D35
D99A
E369
D10F
2848
FD39
2BB3
778D
E295
40D9
19DA
129B
0CCC
419A
0ED7
59B7
E427
2599
4683
FF4E
E0BD
2BDE
0FAD
2596
D0C0
1315
03FE
12E6
4505
BE18
03C6
F01C
F6A5
F3EA
CC4D
0AF7
EF0D
105D
0871
05B4
CF41
056E
1D67
E4BF
07A2
4F0C
E2CB
E73D
F497
2D3A
F086
EA7C
F1B0
D601
27B1
0233
03A7
F498
0A91
0FEA
F8B6
12CC
EF5C
2C14
F1D6
DCD9
1DFB
DBEA
019F
FABC
FDA6
BD88
F972
E858
DEEE
48F3
F4B1
FC20
EA36
3FA3
D810
FF0C
0EDF
E971
1536
EEBB
DE7D
E356
FD80
447F
E66F
F7AC
0696
2AB5
FA7C
E734
313E
CC84
3720
3321
23A6
D879
DE19
2956
094C
0F64
03B8
04F4
FDDD
0F18
28BD
FB63
2487
4C1C
27D1
C16E
B9BD
FBE2
2121
3CF9
12B7
4666
F1CE
00E8
0267
F1B7
24F4
56F7
1BB4
EE07
E53C
DD5C
F6D1
E263
1561
D752
C5D4
3249
2256
131E
1844
042E
36FE
0B6A
FBAF
2453
FDA9
ECF1
F2AD
FF11
EB53
D731
F139
FD9E
EBBE
F395
21E2
0AD2
50BC
FDB7
15E0
FB06
EF1F
1233
2D27
DF7B
BEA4
0D0D
DF61
D338
CC5B
43B1
D492
E8F0
3587
05BE
E98B
0AB1
DEB0
0FC4
F3AC
FA92
16E3
03E2
F8E0
C377
ECE9
1737
00C3
B619
3E05
0F14
AEF3
F2AA
0370
4B93
07F0
D607
35BB
BA39
D224
F36D
BC94
1C41
185B
F582
F1DE
16FA
C883
CF02
0B7B
D8B8
BE8A
F001
25C6
0E26
195D
FD16
FC41
0100
EDEA
F241
F766
C944
0851
FBC9
1967
DCCF
453A
FFDC
0459
F181
0673
0CB6
F093
2B5A
FD08
0301
D5CB
05B5
DF60
E343
2E87
C212
5F10
097B
F693
15F9
F5AF
FAB8
1399
DC23
E3DF
BC45
10CF
DC5A
2AF0
EB81
7FFF
F7E6
0D30
DE9A
FC69
F21C
11CB
0C35
C82F
1DE5
F539
C009
EEF9
3212
0924
31C0
9D61
EFA3
FC53
3104
F6CE
F67D
D42D
D4B0
C266
186E
E53B
31AD
E2B3
FADF
F9E0
0F17
0EBD
19E0
E3D8
08CD
FCDF
F8A7
351A
FD1E
283A
337E
B4CF
099E
0E3E
1737
063E
F8B8
AC03
F23C
DDCB
0814
F810
16A9
1EA0
2C2A
F9F4
DDC9
B34D
D4EE
FD6D
2974
1549
2CA9
125D
187B
1DAD
DC17
0ACB
0B79
1FC8
0932
1F63
E593
02A1
0A5F
F158
FBCE
1E47
39B4
FDB1
D605
035E
A0DE
D477
E174
CA87
AC95
0CAC
0DB6
080C
3AAA
DB8E
0264
1142
E85B
20FF
DE02
657C
5A1E
5D84
0BFE
D9F8
5275
B0D4
02F2
FCA3
717D
BDC4
DB39
1D4D
EF49
CAC9
1194
5A3C
531C
A590
03D2
7AA4
DE17
2B0E
4BB9
0DEC
D12D
77B1
6DDC
D430
335C
AA98
525F
D413
2C16
1DF2
52BC
645E
45AF
701D
C381
F9CD
7FFF
F05E
2700
FF34
1E04
D248
01A4
2474
45D8
389F
7FFF
B060
21BF
FCEC
954F
49AE
350E
4509
F6AA
999D
9337
38B6
3CBA
0F46
5D23
5074
9CD9
A285
3C4F
AF34
B98C
31E6
03A3
0A58
8C9A
4FD6
A41D
EB6D
05C1
709C
A5E4
3C18
FA3B
CD58
4949
E87F
8E05
069C
B608
3F70
51A0
E6CD
AD39
51BD
E252
2C19
A345
5A77
3149
21A0
8001
911C
EBAB
FFF1
0D32
4A40
DD6B
340D
9BFC
557D
BEED
2BA7
C186
3253
6306
2C0B
2787
0E8D
78A7
188D
189A
13C4
15DC
576B
1DFA
42C9
0D08
0FEC
1AF1
2C23
2999
7FFF
1403
67F2
3C65
2BD1
16EF
072A
24A8
7ECF
2F8F
3059
0FD2
3BA9
19C0
1A25
17A5
2B4A
27FB
0B41
2116
1C11
4F55
3281
34B1
0F08
159A
1E10
1DE0
14E7
3D39
64E7
2511
1C3D
479F
1DF5
0EAA
14E3
13A9
1901
2676
1628
77CA
5B4F
470B
1A7B
20EF
1FAF
27EA
691B
63F5
63BA
6BC6
7018
6AD8
6EB3
63BC
6B6C
7066
6598
6E9B
63D5
7912
66FD
6B66
673B
6B95
6F62
604E
6779
7C51
7FFF
60B4
6796
6EF3
726D
6594
676D
69EC
7419
6262
7151
6F91
65D8
6E49
76DC
6CC4
67EF
705C
7586
6497
6A4C
5CE8
6E4D
6B99
75EF
6E7B
69AC
6FBC
7380
7B5D
62DC
629F
6BFB
6517
649D
6B21
6FBA
6784
6185
6D9E
6CEE
73F1
ED89
E44A
E0C3
DDFF
ACAE
D379
FFA1
129C
1A44
199D
5264
14B9
EABC
D751
00FF
3365
0C58
DC36
E2C0
F1A6
E757
0F2A
2773
3A12
E356
E488
0398
E43D
DA95
BB21
CE52
9C9E
F503
0596
F7BB
11D7
F9CC
0A7C
0294
0889
2734
32A6
24E0
14CF
11A8
2D77
247A
DE78
3715
22C2
DAB9
02D1
13B4
0C27
16F2
2CD9
27B5
2BB4
1AC7
2389
057B
D0EE
F209
F046
0BD5
3DF3
326E
FC5A
CF6E
E712
F1BC
D870
E90B
0924
F0CC
FC7F
F954
9D6D
FFCE
EEC7
A760
E4A4
DCAB
DE87
D0F6
D4C2
C430
E968
108A
FC60
14ED
FC41
1361
DA8A
EA6E
3533
DA95
4EC7
52FD
F40A
3D86
FF53
0D55
1525
12CD
2859
E02F
1F49
F978
0F13
DC19
0C54
06B6
D542
35B3
2DB1
F9A3
F29A
0813
1E96
25F0
25A9
2D24
03FC
2543
3768
0C6C
3DAD
342B
1EA9
3665
FBEC
EDBC
21A5
EBB6
ED21
017A
EC76
A717
C225
DB00
EB02
F748
00EE
3172
FDCB
0044
F969
9E1F
D368
D38E
CECC
F21C
EB3F
26EE
4396
07F1
1115
F90D
DCB0
3782
3205
041B
0895
FC77
D924
D1B9
D654
F1E3
CD4C
D0AA
CA6C
DFCE
0CD3
0C45
E8EA
1ED8
F185
F13A
A193
4B88
3380
21AA
1018
016A
0351
EA23
EDF1
F090
3D22
308D
035A
D0E2
D761
D690
F633
0813
1B1E
CD4A
D7CE
ED55
BF6E
EB52
2D02
3C27
3AF2
34BE
DD35
C9F1
D429
EA51
D0A7
E8D6
F689
F296
DD29
5029
16E7
1D10
270D
0611
EEFC
0119
1FF1
2453
13D2
0046
0C7D
05A5
AF2E
D143
DFB2
CE76
C295
E474
E5FD
F7F2
22E0
0639
C61C
B90F
1340
4E6A
0FFB
DC44
FFB4
3A99
FA19
F8C6
D0EF
ED1F
37DA
256D
19EB
0D15
23F5
4C0F
30DA
E342
2D22
24B4
FD56
EA9F
D339
D641
DF95
B401
E8CD
04B7
09FE
10CF
25E3
06D6
EAD0
0A9A
4B89
2CBA
EE6F
F2F3
D733
F9B4
15DA
333B
167E
9D04
FC31
1112
1680
DE4A
C1E7
C83D
D002
E89F
25D8
3DB0
071D
F7D6
3517
183E
DF1F
19FE
1D4B
1118
FB18
282D
2466
C46A
07D2
3CBC
DA9B
E956
12A7
C9C1
128C
0AE8
FFD3
E4E2
DCFF
E542
CDF0
E67C
AC2D
D4EB
059B
E3FC
C7A7
D51F
D251
F7EF
2A7C
1297
2FDC
5836
CAC4
F62A
E2EA
D5D4
FEE4
D3D7
F501
2035
E73E
F194
39BA
1312
F973
2A08
D0C6
0B76
37D0
2417
EDBD
1A9B
273A
3D9F
311D
25D7
2CE9
EBF4
EBC8
EBEF
B2CF
CACF
EA8B
08F4
1346
0261
2F85
233D
E5DC
C8F5
E34A
F74D
C256
F20C
18BF
DECD
0498
156A
D9A5
DB90
107B
2042
27EF
158A
4626
3F95
FBD1
1508
FE33
1E4C
CE4E
B099
0B53
D83C
063D
1F6F
3EDE
125A
D3EC
0E83
FFB0
F54A
14D9
120D
F1F8
E11A
C8E1
F015
E5DB
DB80
C8A8
FCE6
0ADE
24EF
4390
0219
0114
139B
1990
373D
3606
1696
18A4
566B
0520
F94E
E14D
E96A
164F
0967
1EA6
FC18
CAD7
E401
13E9
05DE
0DB7
FD09
3AD4
5095
F391
F775
E90A
D011
A752
BAA9
D8E8
F854
0506
E730
E2F9
E4DD
D4DA
E655
DFD0
E1DB
E537
ED8D
D034
E1F4
E2E7
E7D1
0036
F35E
12E2
2967
20C1
C15C
E71E
1F88
24BC
1975
187B
0040
E990
F742
E736
F824
0FBA
1D05
0D3A
2A8A
455D
E014
C06E
05F0
0B5F
EC13
09BD
2911
293A
19D1
263D
1F35
479F
EEBD
F4CC
FBF5
20A2
D0C0
AB77
E891
F84C
2EE0
DE8D
E3BB
415A
2148
1441
1F05
01FC
F490
0AA1
FDAB
E9F1
F3B4
FEF2
F236
C3D6
A407
C199
24CF
235E
2F8B
45D8
2DFA
E8EC
05EC
FD96
EFB0
9741
0809
E547
AD2A
FBE7
174A
17AF
F115
19C8
1454
31E0
388B
0A49
125B
13E1
DF36
DEC1
FE33
FD1D
8001
F995
2E15
A7B8
FC90
0BAD
F4E3
2A36
3E95
0678
18EF
4400
0F71
13EA
0671
EE68
CA6E
F7DB
2754
3AED
3260
35A5
0C44
064D
13B7
07FB
F1D4
D716
EB73
1ED1
0404
E3BC
ED1D
3E04
14CC
4BA5
FC3B
3872
EC8B
254E
FB7C
032D
7378
D6C7
FA31
776B
EB89
04E8
20B6
FE61
F843
F874
4E86
2121
050E
5EC4
1D0A
2024
2377
FE50
4100
03A0
3087
2EA4
ED7B
39E1
E7CB
F0BD
27AB
040F
2878
1007
3469
BB65
5100
FD28
0DCC
7FFF
1AF1
23BB
055C
1EA9
FF89
3509
F41D
0DE3
F7A1
2040
123D
249D
EECA
487F
278E
F254
D678
30F4
FB06
292C
2677
35A8
0EF6
FB63
2810
7DE6
13A6
39D5
0CE9
0B7F
5DE7
1405
3188
FE7C
1F70
2A9A
331E
3929
11C1
2DE6
902D
F66E
0E95
05C2
7FFF
0ACA
073A
2EF9
EA97
ECE3
1815
4CA9
0FB4
DEB7
1D22
1C23
F1D1
DDEF
E854
F240
E72E
1E89
DAFC
F4F2
EFEF
E401
42B0
12DD
E792
3AA6
B34E
1F04
10DB
9777
E6D2
EB71
D0C0
F7F6
0BBF
EF6F
F2C9
D446
4D34
EB6A
F29E
0381
E445
D114
BFD1
F435
F2E9
14CC
03F3
EB74
050D
4ED5
1F2D
26E0
07B4
0C24
F22C
D374
BECB
09E9
2E9C
1BEB
EE76
DBE4
D206
3806
EB7E
D5D7
33B1
D19D
C590
D084
FC48
4EB9
A860
EA72
7FFF
F2F4
E1F4
2BE6
96BA
D38B
3B27
0171
C7B1
CE70
D68D
778E
2CCE
3E46
C948
005A
398F
19A6
DE67
3BB9
0EDB
28D7
3010
2A28
2523
1E2E
4513
2DB7
2469
2D5B
1F48
318E
2D22
3A14
2A39
3B30
4D19
301F
2B7F
2267
2BD1
4877
1FE5
392E
2BBB
4652
3941
3AF6
2C91
3088
31B2
13DB
5B5D
26AA
28DE
31A5
1FEB
3D8F
2BED
2F14
305E
23E8
4836
3DCB
511A
24CF
5887
3344
1B9D
3098
1A94
2DCC
2ED2
3E58
2443
2FA0
3758
2996
26B0
3A54
2C6A
245C
3783
281A
331F
2148
2B67
47BE
253C
24C9
3F66
2F9E
2271
34F7
2749
2894
7FFF
3EE8
3FF3
2C4F
2D7E
3277
220A
3210
230F
234C
1915
30C0
4772
3C88
3C02
2B5D
34C1
2117
311F
2692
25E9
6767
6333
686A
66F4
6EF1
6402
6BBA
5E34
6AA9
5C48
7554
6205
6D35
683A
6D30
73B2
54D3
63B1
683F
502C
6E6F
7229
6602
71A3
710B
6F25
5F68
6A0E
6BCA
558B
663C
673D
64B1
6A53
6058
6E5F
6317
6A48
6E49
602B
66FE
790D
686A
7153
65AB
6AC9
61EB
580A
5A1E
6B6D
6D50
4F5D
6793
69D8
6C41
6835
7FFF
60FD
6D5B
6F48
69C0
68E9
6F4C
6E7D
681A
5B63
64C7
6A24
6359
61D3
71BB
66C5
6173
62CB
709B
6D92
6709
4FFD
6AD6
5DB4
6CE5
74A3
5874
71F3
632D
6E03
6D93
63C7
62BC
6326
648B
63F7
56F4
755D
71B9
74D7
0681
FA99
14C7
1D43
0BC0
1186
FACA
162E
BE8D
2F28
C8B2
16CF
FE26
F672
CC4D
0267
E460
04D8
3110
E9AB
DE8F
FEAD
4096
39F9
F9E6
F6C0
EBF0
0FE6
F91B
FF32
3C89
25E8
F210
2132
0030
1875
0647
FF0D
C6FA
D6D7
CC47
2040
F1D7
E8A6
3356
F458
0226
DE65
0D10
21AE
06BE
EAFE
25B9
20EF
15C0
CDFF
C43D
0D53
32B8
E8C3
B040
F0B2
029C
FD12
F630
1B5C
0AB2
1F28
2094
13A2
150F
3760
0141
158C
F9E6
03FF
4637
B86E
D427
EC98
2F3A
E994
2D7E
08A2
B7CC
EEBE
155F
0FE7
EDC9
D383
2EFB
19FB
F600
204B
EA47
3548
DAC4
F209
EF04
FFD0
F243
08E9
D145
16C7
138F
EA06
4B9A
DCC6
FB64
0C79
1CAC
F6B0
D6BC
1B7C
EDD4
2304
0993
E1B0
C647
FC7E
03F7
F22D
027C
00F9
0970
E338
0CAA
F7DE
F704
DEA9
EA38
083F
2843
E2C1
22FB
0A8B
3625
250D
1505
0408
F94E
11B0
1A14
1B4B
07CD
F4F8
E9F7
FEB3
D860
FD01
2E5B
1704
F3BC
EAC8
1514
BAE1
3101
E2EA
03BF
EAE0
0933
1EE0
FE31
F8CC
4B56
FF4D
0B70
0336
D53C
E400
F5ED
E363
F442
161B
0FED
F706
0B60
1D7D
34EB
0F00
129E
DB50
EF75
2868
E2E2
161C
314A
E3F1
B628
E363
08B2
1E7A
0136
0E17
0389
ED4F
1BA4
FCCD
E208
F50F
E5BE
EA2A
E206
4A61
1E10
1243
001A
05D3
07FF
1534
F27C
E542
4A8E
00F4
F330
0203
B3DB
F7E5
BD24
FE74
DEFA
F5D6
BE2E
F4AC
22E9
1F6B
E2E6
277C
077C
ECC8
E8B0
135A
2503
012F
1A38
D50B
FFF8
0082
E6AD
17A7
0267
15EA
DFA9
0D42
0FAB
E2F7
F4DF
E767
E146
42CE
D7B3
0041
07AE
F42F
BE81
0871
E204
11C3
CF60
1814
D9F9
F6A2
FE85
F0CC
DF8A
153C
F99F
E9C1
FC9E
21F6
D9DD
D673
0AF0
F360
FD33
C3A3
1805
F2F4
F1BD
1659
D444
EF53
FAE5
C830
3AAB
0DB4
3D18
FAD2
2867
2355
EEEE
2600
14E1
EEED
2959
F275
E901
0025
F4CB
F2D9
E1D0
1176
0CA7
D431
163F
E92A
21F4
1D48
0E94
20EE
C046
EC06
E572
11F9
2608
0968
1CFC
F336
FF50
D2A6
CB09
07A8
1027
1CB4
E747
12CB
EE1E
F6D8
E842
F622
2BB5
F7A8
0CB5
17F8
0E26
E573
15AD
0F82
F65F
DAB5
1936
0C14
EEF2
1F2D
10F3
192B
072E
F779
FE48
C9C9
1BE6
F5E2
F947
E872
0A58
FD53
F899
19B7
5730
30C1
D3A6
1CFA
D295
F600
2B8E
1AFB
339B
189B
DC5C
E57C
FE82
EF37
380A
147C
0EDB
F113
37F0
0130
1B33
2512
DCDB
C598
F14F
0444
1F0E
0446
F1D2
35F5
27ED
1774
06A3
F792
0590
FAE4
EF52
167F
49BB
15BC
B5B3
F8CB
0A26
EC29
37A0
057E
084B
207D
1446
8E07
FAEC
FD33
62E9
F122
0957
19AB
1EB3
0BF6
0A22
D161
055A
2FCF
F881
0A79
432C
1C9E
FB00
FA11
E960
E32B
F9E5
34BF
0CA9
DF90
0E5E
1F06
007E
F76F
EB0F
E798
F46D
019D
09B5
FA05
078F
DA9D
D3C7
28D6
F5FB
3D3F
26E6
DC91
2068
EB90
0231
E6CF
161A
FB35
EE76
F6AB
E620
1669
15B7
DC86
F5AA
E3B2
D331
3133
E3D9
0AF5
F1AA
FD37
1D40
0D92
FA70
399B
135B
1B11
EED2
EB23
D961
DC35
0250
2E26
0C6A
D3A0
444C
1796
3476
DC71
03C1
0082
013A
E3E0
0ACA
2302
F784
F4DF
0D7E
E1C5
387E
1ED4
054A
259A
DF93
D9FA
F2CF
D7B8
F6DB
FCF2
122E
36E7
04D1
ED7F
DE8D
18FF
0D4D
D376
FDCC
F7DA
0B22
0828
F144
C1E1
F094
E37C
EEF0
DD9B
3388
0734
2F54
D83A
ED8A
F605
E92F
FBB0
FCC9
07CC
FAA9
F318
1AB9
2D71
2865
F913
11D4
004F
EEF4
3406
17E4
139B
CB4D
E604
F59B
EE79
D661
F791
02D6
D6C3
2C30
C52F
DA8E
FB52
E378
1BB4
1AC9
ED06
2477
2223
DCE3
11DB
0A21
D537
DEAC
E1A7
08A4
FD1D
2F7B
2647
109E
19B3
31DF
FB8F
06CD
1D94
F53A
29AF
09F6
E1F0
F793
CF36
E68F
0619
FACD
FFAF
2020
E5C6
5CDF
DE2D
05EA
F31C
0054
DE2F
D8A4
10C3
D206
E7AC
264C
3F50
D23D
2359
25B0
0900
DEB4
28B5
D3B5
0530
DC05
184B
EE6E
F4C8
1EB5
F8E1
0178
21C1
0214
F509
F74F
0644
0850
B573
1302
2D99
F21C
FB23
2280
1C33
F9AE
EF69
01F1
1CB6
21E1
FE14
E442
F80C
0290
35C3
1285
0F33
019A
008B
1D77
0621
46C8
01B0
F7DE
105F
CB3A
FF47
0D25
FA16
2004
0822
D58F
28D8
24FE
FEAF
D0F5
29FA
090C
0B50
F6EB
F41A
ECBD
F11B
3DD8
0695
25D8
C3CC
DBC8
0934
F97F
2392
1C4A
206E
1063
ECE9
4F6C
2908
0274
BA09
2064
0167
084E
14B8
F311
C711
D421
042E
0F53
F6F8
D351
EBF0
FFBA
F9C3
D001
E32A
D705
EC6C
224C
20F6
D668
15D2
206A
1274
D280
01E8
13C8
D502
1E0C
CAE5
1B42
2CAE
FB7F
E894
073E
D8CC
D2E3
E166
CD1E
C8D1
1464
2F78
224D
44CA
07D1
0BE2
E0C6
1C2B
E887
303B
081B
26C6
E4B6
0356
112D
079E
EDF3
20D2
FDBB
0762
0DB8
030D
D8CA
F62B
BC3B
EA85
FCC0
FE17
0DE2
EEB3
E9D0
FAFD
EA2F
14CE
05A4
F833
F2AF
14F4
2581
1940
DB65
F72B
FFF9
E9BC
D502
CD67
0886
F4D2
C79E
DBB2
08FB
0301
032C
E268
15CF
FE2F
1E71
FE5D
EABA
E61A
2641
DE20
18C2
1141
368A
FB3E
D291
EC79
EEFC
CDC1
0F80
0038
2F76
3E3A
0550
D23F
F8CE
FB9E
1638
E11F
12A1
1485
F619
26B0
F076
EB37
3265
EA38
0E3A
E6C7
F8B3
F2EC
2C4D
F223
0450
069C
014F
1162
115A
08EB
11EA
34C7
BB08
00F4
B400
DF3E
0A63
FCD4
F195
F9B8
D14D
4B4E
FBCF
4A92
FA20
18ED
CEB4
03DA
FD92
FD39
F224
15AA
1D7F
EAE1
E955
1540
F81E
DB80
15CB
0436
C8DA
0F7C
FF43
10D3
FF74
0A8B
091F
0017
000A
E672
FD1F
D253
08CE
06C0
1941
CB98
2BC7
D357
1B0A
F4EB
4AA5
DF1A
F170
17D5
E68B
F50D
1F94
FC08
E3C6
EE8D
085C
E398
E5C6
C6BA
4441
CC82
192F
05EF
FBA2
FA5B
25F3
00EC
2AAC
FD92
22C8
0D68
E8FE
3EF8
2288
DA11
BECD
F4E8
FF23
F858
D8DA
0C87
FCB0
DB56
E03B
0143
EAF8
2C31
0BA8
0FB4
FD8D
CFBE
3B67
13E9
1AF8
DB0A
1354
3131
F199
3453
03EA
AC91
FFCF
FAD3
FE0D
1116
1DA4
ED18
09D4
E38B
ECEC
E128
C3D7
EF51
06B7
F707
FA2E
F539
E531
E284
E65B
D1A4
4406
EE55
D361
13E7
CFE1
17C3
BC8A
0487
08F7
0C55
F3C2
F823
0B32
D903
F6B9
DD72
ED50
DEE3
EFFE
EC72
FC61
201A
049D
08FE
DE16
4157
FFA2
E262
073B
21FA
EEBB
28D7
21D8
E9A2
E18D
05B4
B71A
AAC5
0E54
F235
F247
DB64
D926
361A
DF83
D634
F4DB
1511
1597
0620
CEAF
2FB3
FE10
F765
DD40
3604
45D1
E99F
D082
FA5E
0CD7
E6C6
0DF9
1980
2354
FA9A
1483
FD4E
4287
2CA4
0AED
2B8F
D648
21FB
EBAD
E189
DBC1
F9E1
FEF9
08BF
0C4A
DEEF
132D
2366
1726
DDD1
AEE2
FD62
E4B9
000F
E2BB
FE7A
44C2
0683
FF2E
F4B1
32E6
EDD7
CEB6
156A
1281
F911
21A3
FA6D
F9A2
F698
050D
FD3E
0E84
F208
3071
FE7F
1DAC
ED57
F564
FBFC
09D9
2669
1BF3
0EB6
1725
02B7
095E
F2C7
FEFB
DF6C
0180
1349
2050
0D67
F802
1B8A
0D0D
EB14
19B3
05E8
F90C
DCED
0434
00CB
2F7B
F107
EA99
1273
398A
F4B0
340B
0AC2
F8D6
082A
F891
2B6B
01D8
2311
1B80
FB71
F04C
1C8A
0755
0514
00DC
0E50
C900
D415
08D8
0A34
0A93
0C47
E8F7
DB11
F8A6
E840
D79B
F84C
E31C
F347
3B71
D745
CBEC
DBA5
F361
2E50
0378
E996
DF81
DA42
F397
23B4
F6A5
2310
185E
2427
D49B
1AC1
F4FA
BA83
E8CE
E2C6
F4FC
E576
13BB
F5DA
F55A
033B
E6BC
F3C6
EEC7
0463
04FD
48FD
F05A
1B9B
D5D9
F2D5
ED7C
F6C3
0A6D
FAA6
DF50
ED53
EE46
F5BD
FB31
1D7E
00D1
0CE1
0469
CECA
FDA8
E067
FB5C
04BC
120C
F6F4
2353
3358
E31F
113A
FD90
FCFC
D501
F5ED
FBD0
0F02
0CD3
DFC2
26CC
FBDD
1BCF
FCD5
ED48
DD31
490D
0641
E1E1
10B3
FDCF
0F72
F621
ECF3
ED49
19F1
F062
1D73
C8CD
03C3
D3CF
E350
1EB5
3542
4CD9
0A73
FFD7
DE45
11AE
B505
F27C
FD22
157F
E105
EE19
F81F
DFCC
0D91
0FE0
E761
FF44
3CC3
DFBD
18A5
E6A5
2789
C056
1E91
256C
1AD8
ED3A
20D5
E3B8
1986
DE5B
02EF
08E4
DA39
E9E3
C78A
0BC1
0425
F6D0
0FCC
D9CB
2558
F24A
D01E
F088
26AF
1B36
133F
DE9E
D2C0
0DD1
ED4A
0900
494D
111F
D2BB
2149
FA74
FD2D
4A10
F5EE
09B0
E21F
0A64
D4BD
EBD3
9F55
F4DB
E381
0F35
FEB4
27CD
1D34
F561
14D2
FCBA
0533
4712
D217
18D7
0AA6
DC00
0260
000E
01C8
1706
14E1
F642
11D9
059E
0F04
E050
D2C5
05C3
071B
A2F4
109E
FB1E
FA9F
13C9
02BE
EB55
31BC
FF78
EE7E
0018
EBF1
27A7
F3A0
D921
181B
FF9D
0739
FD65
CDC7
0C23
EBB7
F8CE
DEDC
EBFB
0DAB
2B7F
1AA4
06AC
1369
0417
0A2D
DE9F
0698
231E
1CE7
1C8B
FAED
FC8F
FA4F
E6FC
06D9
08E5
F259
07E3
2108
E48E
194A
F605
0AFF
1EB1
0118
09DD
1B04
3B21
1900
4FB7
1179
E348
E598
F9F9
2902
1ADE
E283
F0E5
064C
00CB
D4AF
D5DC
F350
1346
0B3E
FECD
04F1
4599
E643
389A
F01C
F6C6
034F
F654
1C50
DF9A
E692
EF1F
EC48
0B5A
EA32
18B1
1784
CE50
E463
29D8
E800
F7D6
E51B
2347
DFEE
0B92
F746
37A5
0136
1FE6
F7AB
E952
B9DC
02D7
3936
E0A9
0295
ED1F
D11F
E83A
FE61
F846
FAA8
0709
DA9F
E60C
2773
E32A
EED2
FB61
F9DF
F0FA
3429
5464
1333
375A
21BB
F31D
016F
0CBA
FC6E
1616
0E3D
0770
57DF
CB35
E2B1
2776
0811
0D93
010E
E74A
DC50
1190
10DA
1B9D
E72A
14CF
0B0B
DD61
EEA6
D356
0105
D9DF
0C89
3AE2
D7AA
33A0
D8D3
19FA
EA65
019E
18ED
D3D4
FA31
4115
C532
392D
D66F
0D1E
18E1
0F86
EB13
1663
F488
F4BC
F9E5
E774
F170
F41F
FAD4
F5E3
D97F
17C9
E3CC
120B
2B25
F45F
E413
0EE5
0AF0
F97C
0AFF
08AE
FDB4
0C1E
3906
B6B5
1646
1D05
D7C9
2BB8
0D48
19AA
E063
0C52
F159
36B5
0582
F8E7
C08D
BCA3
F7B0
F3B8
FC8C
DA2D
23F1
05EF
FF01
1031
0DF1
068C
EC7D
160F
3288
014A
2B83
DDCE
F5E5
FA46
CAA5
0E19
DDE4
E24F
F78D
28A2
019A
2073
D448
1229
DE13
3130
0BFA
FCBE
02C9
0901
F4FB
1FA9
12FA
1CBE
0DA0
CA74
B407
E9B0
2390
017C
07CA
16A0
310A
D781
5A18
C2E0
3009
1486
050A
1036
1751
1369
E7DD
E7E3
04D4
1F98
242E
E997
0A0F
0528
3619
2CDD
2013
E8B4
E594
1FE8
D1C5
E73D
E449
EA36
235B
004E
CE71
0E6D
EFC3
2B78
139F
E0EF
FE54
02DA
C12F
CBD3
F879
2198
C0E7
E893
0FAB
EC5A
9A99
153F
11FD
F8F1
F03D
0E88
FB82
F818
19E1
0160
0096
09FD
1C91
EC77
F32A
030E
1700
09A9
EFD9
FE34
0973
583D
E68E
1B3A
D5C1
E5DE
F66B
EEE9
CD53
FB52
D4DF
FB7C
D845
EC44
E305
F4E1
012D
0C20
18D4
0AA6
FAF6
0A42
01A3
030B
238F
E8B1
01AC
2CD3
2AAD
F8EC
EBAC
0BA3
15D0
A69F
EB8C
115F
DDEE
FBB7
EAAC
E1DA
5713
DDAE
F3EA
E229
011D
3DE2
ECD2
1106
0BD4
B2D6
598D
0D8C
E4E5
E166
1586
C512
C09A
C3F5
0E7F
E041
FF8D
1C69
23DB
44DD
10DE
1200
0FA3
2449
1651
3451
ECDC
D3D1
E5D9
0509
257A
E6C2
00BB
DECC
1F6F
05FB
2A92
E7D6
D85E
F370
3EF2
0C7D
183C
0FD7
E5F3
FD7E
F960
0683
FA77
4017
074E
1503
E7D0
07A5
05B8
1EFA
F0D0
F78F
321E
1563
F895
FF16
05B3
0A5A
1BDE
ECE1
0BB4
077C
F9C4
F53F
2EBE
E6C9
E14C
F912
CD2B
E7F4
0177
C690
436C
F58B
2BB1
E64B
2013
FA17
EF13
EE86
DBB2
E2F7
32CF
2E34
1671
BC70
EA00
02BE
F477
06AD
DDDD
071F
2680
F99E
E59B
07D3
F5F6
3CFB
F7AC
1F83
E982
FE45
1B56
17D4
BFB8
A370
FC19
1339
148A
CA53
0F6F
2A15
FD14
BB58
F4D2
D4CE
0C34
F7B5
E1ED
F9A0
FC74
DF28
3482
F5E4
08B2
E8B2
E8D2
FF10
14E5
091D
BC6C
C4C1
F6E2
29E9
DED2
F52D
0110
E051
F6FC
0D3F
02D3
E5BC
028F
0229
EBC4
0C0A
DB03
0781
DE20
15C3
A22A
0A9C
D5C2
007B
0870
E476
FCDE
F7AF
F5FE
14F6
0E72
FD25
FF86
DC3C
F1C1
F3E2
0E65
119D
F9B5
0E57
F693
F2EA
2904
045C
13BA
D89C
EB92
F92C
0FBB
F9A8
0E43
F8C6
04CA
E421
E7D4
0FDB
C5D3
08F0
E979
0216
3ACE
0B86
D8C2
E16F
16A3
F07E
4AB5
0DD7
1433
FFC5
F0E5
FC5E
1ED6
EDCF
0FC9
0FC1
C843
1040
F5CD
07FF
EA58
FDA7
FD6D
2A1A
EF08
2985
F563
BA22
DE0F
D0C8
184C
0B25
EC7D
CBB0
2811
2FF3
004B
0538
F5A8
0DB0
2CB1
0C63
DAD3
FBD2
2534
DFE8
0376
EBBC
E59C
FCBE
F2D3
0DB8
157D
161E
EECF
EBBD
2115
EE5B
0BC9
F0C6
1974
E97B
003B
0086
F069
0368
1F47
E542
2305
11B8
EFE8
E6B1
EC37
27B1
16A8
E05E
1270
DD4F
EAE3
B13C
185E
06C3
EB78
DD0D
0650
0600
0F22
E543
FC77
0DBB
CA2D
E3F0
FBE9
1695
168D
C860
0555
0265
07A5
06F3
C35A
06CE
1D43
B6CD
E69E
D030
FBDC
EFF3
C9DD
FB47
358A
E0BE
12A4
F704
1EA1
FC04
FD5D
E215
19E3
01CC
D6F9
03D2
BD66
2154
F8D5
E3D2
E34C
170A
3192
0012
FA18
C9AF
0AE8
EB8E
F615
0C7B
FCA2
20BD
E078
1EB8
EE65
F4F3
B064
02DE
EFBE
E8B9
E5DA
1931
F35C
ECD6
BDB3
1974
1F1D
11B0
F725
086D
D117
6601
1F7D
24BA
290A
DF52
0D30
0E6D
F171
23D3
F783
074D
1AC0
0B6A
2452
DA7D
EBEA
DFE7
D9CF
154C
D833
EF4B
FE36
16C8
2414
127D
127D
1690
049C
E4A3
D601
E7FC
0A64
27EC
12FE
EE1A
29FE
0BCD
EAF4
0CCE
E5EE
DC69
E330
E271
DEC6
1589
D5F4
1B53
D7D7
19B2
36D7
DF4B
30E7
CEDC
FC50
080B
1B06
BCA0
0F86
E688
0C85
E763
F255
1F63
075B
F86C
04EE
EFF8
0D9B
4100
1DDE
F8A7
FF5E
F3EA
D4C5
3408
CD93
F9C3
1275
BED9
EDBF
F92B
0F8B
FADE
D990
FB4E
E155
09B9
F6B5
DA6B
F525
2BD6
113B
0EEA
1BAD
25DB
178A
1B3C
D941
F7CE
E551
0778
0068
10EE
21FE
FDA9
2971
FD1C
F189
E045
1ED4
373E
DCD3
0398
F49D
213B
CD15
D607
E6A5
2BF4
169A
F179
5663
07E8
082C
3EBD
314D
0F4A
C4F0
0E54
F140
FDE6
0A52
1399
0330
E86E
F775
02EE
EAF7
2F85
05A2
2B15
2127
251B
F189
0F86
FFB0
0B27
EDA3
01EF
01D5
0757
0DF0
DE3B
27C1
D7A3
FA02
F10F
2BF4
EBE7
046C
1E27
09A5
E235
1080
E3EC
FC84
1C2D
E522
2AB9
E387
E593
B79A
E91A
36CD
E9DB
FE4E
0007
EFF0
EF75
0859
0432
DF07
17DF
C9CB
12BF
CD42
F062
E4EA
1643
F233
370D
CED9
05F0
0C6E
CFF1
CEF0
36E3
2722
19F0
F510
E6C1
E03A
1853
F637
4AC9
E213
19DF
188C
2B31
038A
DB59
E554
20A7
D2A2
E033
E745
FEDE
0A44
F88F
0619
01F4
FA1D
CD43
05E9
DD4E
FB16
042D
FB99
2645
251A
1FFF
DBB2
D125
0E8D
00CA
36E0
2B01
DB26
F9CB
F51D
B614
F9A2
0CFD
DA61
3A16
CE13
201E
E5F0
350B
F112
F93B
F0A8
F39E
D8EC
1282
1077
D869
2200
DC33
2848
EEDB
FB21
2885
1BFB
090A
17F8
009F
DAA1
1B70
01F3
D0D1
003E
073C
1D39
FCFD
E26D
E07F
FE47
FF96
A992
2296
13E9
E62E
D5B7
F66C
1864
D4CD
2CA9
192C
E7B6
0EBD
EAC4
1B04
FB67
0801
DCE7
34FB
E2EC
F3BB
09DA
1F46
9A3B
D434
3D05
F739
D7F2
F6D4
1A6F
F3AA
EA98
FB44
3E8A
C389
0758
20F8
DB38
F561
0793
1CE1
3226
DAD4
22C1
15A6
E8EB
F8E0
F54F
140E
10B5
EF8C
16A2
DD64
DF0C
FAE5
EAFF
1D60
FE73
3B1F
FED8
53A8
F92D
ED2C
F289
ECB1
07FC
0C04
1512
FF5F
E833
0473
FBFB
3E90
0E3F
1232
0BEE
D730
2074
EDF0
24F8
F92A
05DF
23D2
07FA
0710
2F9F
347F
2AA0
058F
294C
3190
0B31
FA67
1199
09B6
EB9B
F29E
FACF
05C0
F961
095A
2C87
1044
1351
2C3A
C190
2D3A
B456
BB4F
12A8
04A6
C972
1D92
4940
E8FD
101A
F0BE
18B1
0A47
2011
FD14
01CF
EA00
D82A
219C
F061
E824
20E1
1694
ED79
FD19
05D2
1F2C
0201
E8AF
1496
FB6F
F3E0
FDB1
0DD0
D1FB
F51C
F392
29D5
E5D6
477B
EDE5
FDC5
1A94
0EC8
ED1C
D876
DBED
20EF
E85D
5993
D759
D941
168E
B475
E4FF
F22B
E387
EFB1
03C0
E4A3
FB61
2B4C
1902
F6CB
F839
474F
93CB
0C9B
19E1
EFCF
06B7
0218
E14B
227E
F118
E92D
0C5B
212C
FC33
DDD8
1919
1271
E3E0
DA96
10C7
0717
EB5E
E6D0
E706
1689
DE1A
F799
F007
2AE6
155F
E1D2
D0AF
FCE0
31C1
E1EF
312D
DC6B
A457
31BA
347C
0F79
1AF6
E527
038A
E5DC
2411
1E2D
0598
FAB0
FDBA
1AA6
0219
D2C7
2980
E247
166E
1F6C
25F2
8001
065A
EF73
05AE
F84C
45A9
DF42
2F4A
0183
06E7
0DC4
0979
35D3
FBF6
3291
0ED9
0DD4
2D7C
CFD4
0683
CCCF
F421
F3B8
F2E2
1FDC
1457
BF94
F542
F021
E9EA
FBE3
321D
06D8
10DB
FD80
F294
FBC6
F1CB
0710
0805
3B9B
D520
D701
EDB9
200B
E658
F01F
FE59
00C3
175C
FCF1
0C75
0F2B
2E83
F2C2
F71C
CB2B
EF81
E174
1B12
0E80
F4D4
DCFB
32D4
E3C0
02B0
F83C
38D5
DAA3
F577
3B15
ECCB
DC82
1017
1ED5
C99F
1341
F5C6
CB7F
0F55
F053
F2B9
2CEE
B5D3
13FD
3756
1E91
F26F
0DBD
C7AE
1EB5
37E5
F7D9
FE4C
B9D0
F050
32CC
1BCC
0DD4
226C
DF60
E4AC
DF4A
F20C
148E
1209
F90B
D954
F95A
E2FE
0604
0629
0179
DB75
11A4
F5FF
F632
DEFD
043A
18DF
017C
EE73
E00C
BA2C
F806
0F9E
EF58
1221
FD7B
07DE
E91C
24B8
0931
D440
0CBF
220E
4A93
E3CE
DE9B
F05F
DABE
355F
F976
DB1C
C757
0E6A
28AB
1957
F328
E101
DD33
0FFE
0855
FD0B
08B1
04E2
CEE4
0CA1
EC37
D8ED
2D6B
F822
D17D
1594
BF9D
0A1E
10D3
10C5
1E9D
F21A
2126
1480
FD5F
EECB
B24C
DB8F
059D
03D1
147F
1865
DCFC
15E4
F599
0B24
F4F9
F57F
A378
310B
F63C
04E0
F6B5
C9D7
FEF0
26C6
E005
254D
0684
EA83
0EDB
F92B
0E64
DA19
0842
E6F7
E3E8
CD0A
DEEA
C9AA
14A4
E3B1
32DC
0FF8
1D5A
04E1
F591
EAFD
B9E9
E9DC
C9AB
DB5E
0A66
2323
22E3
D85F
0EE8
D9CF
51C0
CB37
2306
F2B2
ACDC
B9E8
1FB8
0128
3105
1250
08A3
F3DE
0125
18DB
EC5E
C924
0E32
1372
2570
31A8
E4F6
1BF9
11E3
204C
0384
F0FA
F883
3E95
E865
DAFA
D41F
ED82
0E9B
D813
DE34
05FB
1EE2
F7D9
F708
D468
0813
CDA3
0962
0ABE
02E8
E797
18AB
DF5B
E93E
09B3
03A4
FA54
F4CA
EDB9
FF55
0E2E
D92A
F22D
F814
E752
EAAD
1553
43E3
D28F
0402
DFEE
1655
EC97
DA49
CA01
CF51
FB51
0290
EA40
351F
F03C
13A0
FE5D
F5A4
E336
0C32
F7C2
FAFE
F990
1099
3BE5
ED21
F18C
3516
3478
FE20
17F0
F743
0D7E
1501
D41A
04E3
F253
1FA2
2F4B
F45B
0376
10A7
D8D2
CF3C
0586
11B7
4D11
D191
F78C
F9A0
DA20
E7C4
E8CA
F310
3D34
FB59
E164
16B9
088D
E3B5
0AFD
11FB
007C
EED6
FCC9
B18A
1094
D94C
05D2
F563
2E69
1514
F154
037A
217E
FAC2
FD16
1A58
EB01
E247
F593
B462
DCC6
26B9
E8F1
1B01
F20C
0C93
2597
E4B4
0ED7
D4F4
1CCA
331D
13AC
E287
2A8B
0B6A
3F48
2EEC
C84F
ED63
0A8B
CA6D
22E9
EE4D
F54E
1A44
0C7D
1A34
3CF9
2083
2A6E
05D4
C20B
DB20
E7CD
08DE
05FB
140B
1F12
0B39
0AA3
C881
ED57
1E7E
EE93
F131
FA5D
4E43
02F0
CE3D
0E73
2FB2
EA39
F189
FD81
D896
1320
2F17
FC4D
FFE8
19BC
259D
F759
F5C2
EC51
05C5
B731
EC9F
D97C
ED90
E02A
F85F
F2CF
24CF
F249
DB2E
2289
1973
E0FA
300B
FCF0
2529
226E
DD9E
E801
E9E8
1B56
09ED
D83E
18F1
02D9
0F68
2590
0785
007B
FD1B
EC2B
1033
FEE5
0602
F3BC
E3FC
2420
0B09
2073
FDA4
194A
F638
F1B1
1987
1A45
C0A9
DDB3
0F42
1785
E8A0
E31C
0EAD
C779
EE3F
EBB9
EE98
F7BB
0561
ED85
F0A1
1F81
0705
E915
1BF4
E055
1166
FF6C
FDB0
E759
F661
2079
0184
09B7
F45C
F61D
03CF
E760
EA38
162F
0962
11F2
EC77
04A6
490A
04CF
120B
FCA4
F836
CDF9
1A37
0BC8
E2F8
D11B
CC84
F16E
B541
C2A8
E37A
1A5B
22C5
ECF5
0259
E1C3
2655
EE2E
B78B
069E
04C5
D63F
38A4
21EC
D169
DACD
F2CA
E5CA
E704
F215
0D92
30D3
1597
190F
F905
170A
0050
F595
DEE5
0E09
0CC2
1708
10EE
FCB4
1B05
3670
331C
F49F
F8AE
F8E9
411B
38A1
0FFF
42E6
DFDF
EBE4
EA93
CCE5
1618
1E3B
3C35
C4A0
FA02
0174
F380
FA23
ED1D
1BF2
0194
23C2
E324
0399
F9C8
3001
0870
4516
0078
0CA1
E126
EE59
E4A2
E0B6
0A34
FF8E
0061
D33A
0A89
DA0A
18EA
E845
088C
29F8
ED02
0A10
FE93
33F2
CDA6
041F
0A4F
C255
F0CD
E435
EDB4
EB51
3DB7
E2E8
307E
ECB5
FAA2
12DA
030C
1003
E47D
168E
1D16
1056
EE88
E8A4
1820
0185
EB75
2DB7
F282
E3A3
2EE2
ED55
13CE
E86D
251D
0468
FEBA
1DFD
0D01
EA2A
E02D
D6E3
FF15
E6DF
FD56
F189
0763
2D60
05BE
EEFD
03A0
EECF
FD42
32A1
F6B5
0C6E
16F1
2E89
E61F
E39F
1ECE
0C92
F6EC
FA65
009B
0EE2
1585
51BA
FD94
E815
48F6
2643
E798
FDA5
0534
16BB
18C1
1C9F
3EA3
0CE8
DD25
093A
F1B1
1667
3616
0144
337A
0753
F879
99FF
0338
FCCA
25C4
F854
0701
F3F0
40F1
0064
E551
F391
01D9
FEE6
12DB
1138
EBE7
ED19
F0D3
0D2E
E770
037D
F69C
0C25
2D44
F13F
D1E0
089E
BAB5
0D04
06FC
EA2A
3F80
E57A
F18C
2442
102F
1A08
24B2
22CD
0E96
037C
E6A8
1856
EAA0
E828
1AD4
FB9B
F063
EE88
2F38
17FA
210D
0C4E
F73C
2282
A722
1D4B
3032
0BA2
0385
2999
F54B
0C36
D876
D740
0F9B
200A
24D0
FB01
0BFA
ED59
E7DA
E718
DF55
2D71
32FD
04CB
E00D
1D67
061B
3442
D33D
0FEB
1ABB
1907
E6FE
3AF7
12D9
050B
01FA
1C03
EE20
14A5
266C
0B13
E9DF
DC8F
1056
09F1
E9BC
0FE6
1C99
0A10
518F
06DF
FAA8
D474
EC9A
23FF
E9FF
CC41
D708
07B5
EF1D
18C8
23A1
EACF
2EA3
0381
E5F1
F624
0216
0601
E670
0C3C
F906
0687
D5BA
2D4B
033B
28DC
EE82
068C
05F7
0ABB
12C5
A00F
F1FB
F7C3
02DB
0290
FBF6
0A65
DA00
F406
2B34
E992
C319
3AF9
196F
CB84
1E32
F908
11DC
06A8
060C
108A
1F18
EE2E
F1C8
0A34
EEDB
2E8C
09BB
103A
0092
F016
02D2
20FA
EDB3
2C63
F194
DD3E
E4B7
24E6
DEF7
E073
060B
50BE
0542
C675
1510
E9A9
42BB
167E
FB00
07BA
F7B2
FE2D
FA2B
EDDF
097D
066A
0E8C
D233
F864
FB85
FE9E
FD90
E857
0960
E001
EC1E
E814
3155
1FEB
EC13
FF4D
25C9
FE8A
196A
FDB6
FA52
ECA7
DDFD
F4AA
DDA9
102A
D203
12C7
E1C9
2418
FEE3
3909
FBA5
F560
1D20
DEF6
2A57
E88B
F5A9
11F1
F27B
0C7D
E4F8
D73F
F520
00BB
27DE
FBD3
D45B
19A7
1C9B
E94A
0934
FC5F
C1A3
CB99
161F
2C4F
CE06
09B9
4694
1CBA
FE71
257D
C950
0A83
1F01
074B
2FEA
3CA0
E50F
DA86
2065
F7F8
FD9F
10F1
DD65
E42C
36F5
F437
13FE
2635
1B61
1046
235C
EC4C
2A67
F83D
17F1
AD30
1118
0772
0DD9
FE65
0D65
0817
09C8
F0B3
3DC2
32AB
1FAD
BCC3
FAA6
2E9A
0730
FE16
1EB9
C474
E0BF
F847
D5BF
FBFD
EB01
0B5B
ECBC
0D3D
DBA6
077D
EA33
F11F
1CB7
C5E2
EFE0
D4EF
2878
FC0A
E633
345B
FD9D
FCCD
10B6
A418
D981
2573
C45F
04F9
E0F0
EEDA
0898
01F3
1273
369F
EB54
0AA4
DD9A
EB9A
FB94
D8F0
F4C1
1672
28CD
01E9
043C
03D7
D2AC
DDB6
D2A9
0094
EDF0
2E55
15E5
1F2E
EFDA
0EBB
DA0F
0657
CC65
0197
C844
CEDD
F798
CF7A
E504
2492
EA86
DE13
C922
FECF
1634
266D
F0BA
DBDC
179C
D765
1963
0133
F511
0003
F053
0703
E5A5
36CB
F21A
0E32
2131
0FEF
D9E6
586D
DB91
C50B
0FA1
C399
0905
21EE
E3FC
1C30
FF53
B762
394A
FA66
EFEC
146E
15CF
0927
C00F
FC1F
F7AC
FADC
0EEA
09C3
EE79
078A
D7C8
CD2C
F150
F443
F208
F5FC
FFC5
0374
06A3
1654
13E6
04FB
D908
0054
E6D9
CECD
F4AC
3364
02C3
F33B
F212
45A2
F766
0DCE
05C5
EC12
1E05
EC03
F5B8
F3D7
B8B5
F915
CFD7
0D94
1C9B
220F
DFAE
051A
E832
1590
1593
F80A
DAAE
1F30
D36F
1332
E2BA
0A57
15AD
EC76
02FF
03E2
38BA
0B5F
E0C6
E628
166C
D743
F92B
E040
CB32
07E3
0934
07A6
222F
E362
F0FB
CC12
24E8
DDBF
DB11
0BCE
07DC
4548
EEFD
DEE3
0B7F
0991
0E5A
0C0C
E8C3
05AF
D084
F2D7
0ABD
1923
0175
2E03
2B15
10BF
CA55
DF66
455F
D3BA
289C
0674
D391
F214
24B9
26BD
FBB5
FF4D
CD31
0315
E1D4
0B51
3972
F043
1A52
E58C
FF70
1E26
F2B8
2F14
F774
1B3D
FA57
1139
EEB0
2C5A
1DC0
FA6E
EE50
0AD3
D4BC
0481
02CD
0041
286A
26F4
2109
29DE
0E62
1898
ED77
25BB
0EC5
0709
F955
F388
056C
088F
F271
02A1
E44C
E596
0FF0
DAE0
0976
056E
F7A3
C385
135D
1D93
C126
01A1
24D9
E08C
FA75
F39B
116D
56AF
002F
1EB3
070E
E3DF
EF74
DB67
2764
F65A
0026
F01B
179C
02E4
21C9
2F41
D7B5
FF8D
1618
0ADC
1E8B
2844
0A8A
D876
19F9
4FD6
B05C
084E
1E03
FBE0
022A
0631
E469
F2BE
0C20
0DC2
FA36
EBE1
C42B
F356
218E
F3FB
F5EC
FE47
F9BB
0413
E382
F13C
13D3
F9F0
153C
DF76
0078
1812
DE14
CECB
FD46
1975
D58D
FCBC
1BC1
11E1
FDB6
0B77
D9EE
0552
E7B1
F0DF
397C
3541
0F7B
1CA4
FDE2
1EB9
184B
F40B
09E2
1316
DAFB
1471
E078
F35C
E8D6
04C0
0963
C3A7
DF69
24CF
ED31
0C5F
FD89
FB29
E5D3
2979
F9A2
FE82
36BC
14D8
0B71
D0DD
CA42
ECD2
EB26
1802
0958
EDE1
11A0
EF6E
E83B
395F
290C
E830
28BB
1CD7
EAF2
D36B
E039
1877
02EA
1554
E6C4
19FE
C7F4
C047
1119
2034
0D4B
F6CF
E22E
ED48
2CA5
34D2
0C7D
EEC5
EC46
D180
1698
0050
0E4B
F2B2
CC3E
EFCA
CB4A
CA5D
312C
F6E2
FCA1
E278
16EF
DC96
16F6
FC1A
F207
0AA1
C2B2
CE4C
08DE
EF61
16B6
1F4F
1F95
F839
11E2
0028
DE23
F557
EDEE
F3CD
2CC2
DE7B
F197
25C3
2937
0414
18EE
EEA5
E521
2AAF
D469
0164
1118
C3FD
E62B
223E
D7A1
FC14
1BFE
2DFF
F5DD
246B
FE8D
1173
F9DF
DCDD
F952
F998
03A7
20E8
CDC7
3BBD
05EC
DF74
E02D
FFC2
EDDA
D749
EBDE
1219
F43D
A55C
FCD2
F268
ABCA
FB6D
E427
1CA2
1A11
007A
1712
4225
07AE
C992
CF20
19C7
5638
1978
1186
EC87
D326
F71C
DDF8
E34B
0133
D996
2E27
CED2
D5B3
13A8
F4B3
FDA4
F85B
0433
1409
1105
1521
F5DF
F345
0C7A
EFED
4E72
ECA2
E426
2574
EACD
D896
250E
0FF4
D3F6
0634
18CF
D0E6
1603
E95D
11AF
FDAD
015A
13DC
1040
467D
0870
F174
0C7D
0B8E
049B
2A02
CFA3
02C3
081C
FA9A
29EC
E06F
ED2C
05A6
F8DD
227F
1849
10AB
020D
FBC2
109B
EEAC
0795
CEB1
28E5
2236
2D55
05F2
FD9B
17D8
0BFB
D2E4
FB7A
4841
FF4C
0FDA
EB06
F4AA
0EDE
00DD
2FBE
120C
EBC2
30AD
E79D
17E3
F87D
D91F
00BA
1AB7
5192
01A0
D0DA
1F73
13A0
D51F
E3D8
029B
EDFB
2BB5
0974
0C3A
04A7
1A20
FD9B
D8BB
DD1B
155B
DE77
3A13
E0D5
D8B3
1059
E07E
00B9
EB26
05BC
B90B
E0EB
F8F7
FF41
2566
12F1
F51E
2638
E0A1
011B
FD5E
0BDF
DB4E
2463
25A6
F008
190F
3B34
D86D
2316
2C1A
F559
BE38
04A5
2147
D707
FAD6
054F
FE19
F3CD
F314
01AC
F00D
1C08
3275
FA8F
F391
074E
D747
FA93
E86A
0315
03A3
FB7C
F021
F225
2BDE
F8D0
08E2
27D3
11B8
08B1
F9A6
EA66
1E6D
E5F2
FFB9
1F5D
1C58
1130
3FBB
058E
F0C3
CCE7
CF01
C2B5
0B9D
41C8
F1AA
C6DA
DDE9
E5CF
FEBB
20B9
F253
0283
F076
4E01
044B
C94B
4D72
FE07
F826
0294
F7A9
C5CA
1A92
10AA
EA25
FBDE
2C27
C8FF
D5A4
4F6B
EF28
C54C
3897
0BDB
F5E0
C37B
FFD2
E235
2192
F8F0
DC46
CB4B
18D6
CA52
F6A3
EF4B
1F49
CE8C
FC66
FBE6
0AA0
E238
224D
0558
E284
3459
2EFC
F18F
1CD5
0AA8
1BE9
F1F7
EAC1
3426
EDAC
FFCF
E18C
521D
03DA
1B13
F6C4
DD70
2AFC
081A
F59B
F521
2E1D
073F
2498
1DB2
EDCE
EEBA
43F1
FDF4
CDDB
FB31
FD3F
D44D
1E2F
DFC7
09D2
E58D
0B44
159F
185B
F4BA
ED16
0961
F79E
B892
E1FA
1387
0D93
1856
1950
F64D
00E8
1503
F72D
FFC4
24D9
FE0D
39DC
3004
015C
1001
22B1
EAF2
F110
ECFE
28AD
0484
E5CB
12E6
1771
0FB9
FCB6
0644
C69B
F6C1
CA04
E48C
EA07
19C6
D7AA
01C3
08CF
DB56
1C09
DE20
F6FB
F0D6
F8E8
F3AC
FFFB
03C3
F255
1C50
DAE7
EB2D
E8AB
E886
3198
F108
338E
BD60
F456
0EC5
2F36
1155
2A78
FF58
BEA0
1A1F
F255
1602
04A8
E710
F39E
E0AC
0DC1
0B94
FA94
0ADB
243E
E278
CFB1
E95D
D27F
16CC
EFDF
2016
0049
F335
FC1A
272E
F514
417F
4084
E0F0
BF2C
E25C
0C01
1CBD
F122
0AE2
E1A6
1218
F0C6
F8B3
0295
E681
026D
FD6F
B852
F1A0
0B68
F3D9
13E7
FCA4
1501
04A7
3EE2
CD36
0FFC
D243
1CBE
D38A
16C3
E854
D0D2
1343
D169
0D91
C568
CE72
D31C
0AA8
F1C3
173A
2447
C91B
DD4F
0BD8
FF4A
E9CE
F232
342F
1885
F53A
D163
DEDC
0F28
16D8
D583
E74F
0E2F
BDD0
BC8E
F414
1926
E72F
EFC8
E25F
EA78
11A9
25C1
1FBA
171B
F551
FFC4
2B6D
F613
DF29
DF8C
100B
F491
FA1D
E654
F048
D039
DA5F
3C49
FE88
EAFC
DD4E
E544
F5B7
0EA6
F1C8
0A21
E4CC
E4B1
EDD4
0739
009E
127F
FF0F
39E6
1134
02EB
30ED
A74A
182F
222F
4A84
0D33
01F8
1169
D642
0B71
F4F3
171F
0C70
F82C
FD92
099A
1EE9
228F
3A9C
E8B8
01E6
1597
161F
D529
00D8
16E3
FBDD
F121
08E2
2B50
2A40
0282
F76E
AB35
1CA9
270A
111D
1273
CEE1
E4C0
D9A8
2983
F172
0956
270B
18CF
E944
06C1
20AD
034C
C858
F9F5
FB0B
0613
27EA
CF0A
036D
0BBF
C563
D7BB
F904
EF72
CC55
DB2A
0D90
FD6C
047E
00E2
FFF8
DD49
0AEC
F627
0C45
035E
FB73
1254
E779
FFF8
FDAB
145C
FA3A
1741
EECC
16BD
2009
0584
2A37
046D
0C74
0CB1
159D
14EB
F087
F227
DC7E
09BB
2B21
FA35
F987
3A8E
0B8A
157D
0CE3
FDB6
03F0
0FEA
0F5A
E20D
FBD8
E953
C0B3
C3C2
23DA
414A
1225
DABF
EFF9
D4F6
3967
50FD
E750
0D80
26B5
0AAC
DB96
F3B1
E642
219A
E5BA
1ED6
D55F
DE8F
2BA1
FF10
2974
06A9
08BB
EE7C
DDAC
2B28
1E53
36AB
EAD0
FD2C
258D
0803
E797
E216
E573
1C15
E0BC
DCE3
18B2
0BC4
FE5B
F46D
12CD
CAF9
DC86
F1DC
3283
1E09
F0CB
DF51
29D5
DC90
F817
076C
E751
0CE4
13F7
F21F
048C
3521
E220
172B
FAEA
F488
F2C6
1E1F
CEC6
E811
01CF
0567
15B3
0082
2168
E033
EE4E
D260
EE7A
DB7A
F2BF
02F5
11BA
E2FB
E02E
0DFA
E557
EBCC
C9C0
CC69
051D
32BD
C07A
CFA0
EB72
0C16
F484
F8B6
1D48
F983
30E8
2494
F140
1A5A
F579
FD1B
D90A
D901
F0AD
22A5
21F7
EC6F
0CCF
0E79
1395
FBF0
E4FC
FF9E
06CA
231F
1488
32F9
F733
DE32
3203
355F
175A
1CDA
D934
CC78
11C9
EE9C
09DB
1BEC
FA5A
D278
E9C1
EE2C
F0C3
01BC
0E7A
FCE2
0882
0B61
148F
F2B7
F1B9
FEA8
E5DC
E260
D6C4
E63E
E40E
E774
F7FA
E381
D302
03BD
16E9
32D6
F60F
2201
21CA
DBC0
5843
C670
0F1D
39AC
1A56
18A8
097B
188E
10FB
0063
FDB4
FBA8
F2AF
F2E1
05D8
FE1F
20A3
E68C
3251
24BB
EDD3
D2E1
04D7
F5F5
E6C1
F20A
234C
485E
E400
0D3E
1919
E376
2CA8
12AA
0B8E
0D14
044A
1253
3B41
07CD
328B
11D5
4734
0117
080A
0545
2541
FDEB
DC81
FC10
084E
2A7C
660F
EB3C
E836
E326
FD68
E4BA
0A2E
241E
E7C8
F8F0
CD8F
0959
E7B3
BC65
C7F8
FB4B
FC8C
1DE3
FEBC
1ED0
1955
1D2B
F8C1
2D88
FC95
BCAC
173F
310B
EA29
0F21
F02E
CDE5
D0D2
1B9E
C393
F274
041E
2BD5
0880
283C
4E2A
184E
F083
10AA
2357
E798
BD30
BFFC
0EC5
F10E
FEF2
13A2
083F
2A53
B654
1D49
0EEB
D749
E71D
3558
01EC
DEC1
0367
EE60
F4BC
00C4
F56C
5B90
DE34
E171
16E7
F2F6
FD86
3DD8
F6C4
E730
F6D4
DC32
F870
0851
0330
0683
1952
024D
E6E7
D545
BC42
0344
A1CB
3315
C2DF
F4BE
3E91
DA2F
C320
D969
FAEC
EF03
F79F
FA24
C8EF
050D
2CF3
0C2B
0F28
EF34
31DB
287A
FF64
F98C
0879
DEE4
E342
D3A9
EEEB
215A
EB49
DC86
1630
181B
1802
392C
036C
23F0
1B74
B3AA
FF7A
0764
0C27
1B60
F8BD
FD34
10DA
E2D3
CBE8
0514
0455
167F
04F8
C9A0
F7BF
2703
3920
F8D4
F817
E6F2
051E
1DD1
E56B
0D6A
0CD5
0349
0A36
E03B
EAE9
FCCD
3FD2
D25C
0351
EE70
21F1
F9CD
2F3D
2C1F
F7D1
DD99
09A9
0DD2
03FD
E435
FC54
E7C6
1F9E
1B65
FE53
EBDD
E71E
08AE
1F57
EC62
EE38
F843
1DAC
1D0A
E14C
373A
39B8
BDE5
FA4B
0333
0950
287D
DD2B
020D
1286
ED95
1D10
524F
F0CE
07C5
DF74
CF66
BA69
D53A
2F1D
F1A2
E98B
3AF1
FC1D
1D18
2439
FEC3
F267
CD1B
0052
DF35
E45D
DEC9
FA3F
F5B6
E9D7
EEE7
301B
D921
E8DE
FF64
0A67
1639
027D
FA82
EA92
CBE3
06BF
EE21
EEBA
03F7
2E21
C4A8
E0AD
C5E0
F55F
ED46
DEF4
F346
C224
FAC9
FFB3
F617
0165
E1E0
0212
F833
0C14
04F0
FB56
191F
19E6
EBC7
1154
F860
F386
F8FD
0EF4
0E48
01A5
EB90
CF4E
E168
1B35
1948
F0CF
F68D
3680
1525
1F27
0D83
F154
D433
0CA0
D906
018F
F797
EAF3
D318
05C8
08FE
F444
EE41
D9B7
0988
F8CC
3C42
C175
009E
E1E3
DF16
148F
E53F
F133
15E8
F6B9
BD0F
E51A
13F3
EDCC
E002
06DD
1C2A
F00B
1551
F961
EEFA
3E70
EFC8
2A66
1CB3
FE5C
055B
EE5F
F65F
FF20
F7AA
CE1E
30FA
0E61
F6A6
1B9F
19C4
F8EC
FC67
EBD1
FEBA
04E4
00A9
09A1
FA5F
DB61
DC4B
0516
E489
0CE7
15FA
1EE5
0A2D
FBA7
33C7
F1D7
199E
FAFD
0ECB
04AA
0897
2ADC
1B88
E262
01DF
DCD8
0413
FBF1
FF81
FE22
FC04
0658
012E
32E3
12C3
1C12
C584
1E1E
199F
0448
3589
072F
2C52
E6BC
0083
0F3A
0978
45F1
E8C4
1D95
F760
2449
0787
0D7A
D882
F49D
0001
383D
F9C4
090E
544F
307C
C0E5
CB5E
1257
D7B1
0B53
2093
2563
EE94
07D8
F3B8
0C8A
F91C
F313
D691
29E7
F4D5
0D51
EBDC
1A09
FE63
0C88
F41D
F468
FFC0
19A6
DF64
060F
D2DD
174C
FE2C
21F2
0953
1344
DFF5
208F
D990
233E
DF98
F75D
2390
0EFC
0B79
0F6C
C440
0D45
F482
F3C5
CCE5
FB23
1017
1E2E
FDE9
036A
F3A9
FE1B
0C3A
B642
1479
322A
1034
0B9E
F6D9
0CAE
F9FD
C544
FC67
EC35
0C26
19E8
CBC6
0180
E9FD
DB00
27CC
D5A5
083B
1579
EE65
00B5
DD2E
27C1
1E99
107A
C7A0
001F
EFC8
DD2A
3661
F5F4
050A
13F8
FE5B
02CF
482F
0444
F50F
20C3
E9F0
ADD3
E7FD
09AB
050B
DF33
C5EB
1A97
E2F6
D728
0466
F7C4
39A0
BCB1
E822
E1BD
F387
FA3B
38F0
010A
1407
C6F2
02C7
0EF3
0535
3A3B
FF87
E9A3
FB8A
E7EA
0994
1612
F144
37C4
1CE5
0FE6
DAE9
DF98
065F
DF1B
D3EC
DE91
F276
1291
10EE
FEDC
E8E2
F043
E79C
28F9
FB27
D8D2
0453
232C
0F5C
4537
2021
1262
F140
D613
E6C3
1882
1AC6
E476
EF20
F233
F0B7
F38E
CE38
0226
FC80
F158
18C6
B8B7
1BCD
10FE
CB15
DD47
0C06
D54D
226D
F2DD
F960
0943
E5AF
22EB
F572
CB24
F0B5
1459
01D5
F774
0CE1
0A0B
0F8A
EF5F
F24D
2670
EF82
372D
BA16
04EE
F293
24A1
C9D8
E073
13E1
DD3F
F51D
0D7C
EBE3
E12F
0556
F732
DCF5
FE63
191D
17B6
3188
13B8
E58A
F8E2
DF23
E4EA
162E
F99C
1BB6
E53A
16A6
E040
15AC
F05D
1E83
0B80
219C
14DF
BE30
EA0F
0D6C
B95C
02FB
E8C2
D671
14B0
EBCF
F0E7
003D
13BE
0C1E
ED0A
15DB
F6CC
EA63
06AC
068C
0B1F
1188
FDA5
0665
F58D
3932
E77D
22BD
395E
F34A
39A7
EE54
4C7E
F32A
1013
187E
5799
36FA
2139
D102
0E17
133D
0F9B
F974
FEA8
EFF8
E302
1E6E
1CE3
18DC
F638
27EF
F35E
20AF
4E53
015C
33A2
190A
D8F7
1654
FC98
FFCA
F9C9
EDD8
E400
F7F0
F814
0749
FBE9
DC52
07C1
0260
1D88
0D87
11C3
2362
07FA
D5EA
ED6D
F458
21A1
ED3B
1131
F1BA
12D8
D341
1408
28DA
0F6F
2E22
1325
1207
11C5
FB64
FEC5
1AC0
F161
3EF9
09BB
E2E9
191B
EC4C
DA95
2C08
EA72
E18C
04A4
FD6D
EA07
D237
0FD0
15C1
07C9
06BD
0E25
E826
06C4
EC02
F620
0997
475C
DEB0
EF32
F8C5
1949
14A5
142C
06BC
14B2
1A33
F31E
D4A7
E16B
BC91
E456
36F8
062B
1F00
E91F
E8E5
E309
0B36
F8E5
5E2A
DCEF
0305
358F
EC14
3814
C106
E64D
2C61
05D3
BAAB
0CC2
F1EA
ED7E
0330
38A0
2380
D00C
F177
E7DB
3921
F71C
1371
E0A9
10A0
0941
D46C
E86E
284C
F8C2
DA0A
D2BA
F8A3
1D07
E86F
25CB
0DA4
1125
FBE4
1FA5
303C
078C
138A
E6F3
ED7D
1F01
26EA
FD45
056C
E020
0BFA
FDAD
EF91
2373
0251
FD14
0FB3
1005
0FC5
04CC
582E
E3FF
390C
FC0E
DDAD
F38E
28EE
27D6
265C
2BD2
F3F9
F3CB
FEE1
06D8
FE72
03CB
D44E
0E7F
FB91
FB85
C913
E442
04EB
153E
15A9
0544
1B9E
068D
0F9E
E59C
D59D
0D3F
CF72
0A13
1C3F
F958
062D
FB9F
237E
FFE0
CD3C
DFCA
BE7E
CACB
EC78
0497
C64C
F34B
D787
01E9
B6F4
F2A0
3CB2
D516
02AC
EDB2
E618
05A6
F66C
40D9
F551
BCD1
32EB
11D9
135E
1CC2
1EF7
1D43
0404
FAEF
069B
0E17
144F
F4C6
C6DF
2832
ECE0
F6BD
0EDB
0610
3767
0E26
290C
F47B
DBE2
E837
0407
0B7F
EDEE
22AF
1140
FF12
DB7D
E2E3
DE49
1B5D
1C84
003D
C62B
C1B9
175B
24C2
1309
2043
C0F6
3215
4895
1CD0
2AE5
CC55
063B
2783
0989
0870
D68B
0453
EB23
E828
E5B0
1CF5
10D3
FE85
F68F
2A6C
AF6D
F00D
F2E1
EF96
FBC4
F6D4
2225
1080
E874
1AB2
17B1
F47C
0838
E671
113B
042A
0821
1E89
F2E7
FE99
04B3
0B5A
26D6
2077
300E
EC0F
DE8D
2A24
0EAD
12AD
B523
E083
1FB8
CED6
DEA4
12D4
47FC
DF37
DE4F
1136
147E
FC9D
157C
0D76
4585
F32C
D85A
F072
0E43
3BCF
DD00
0328
0529
EBF3
F8A3
07F3
C007
FC38
36CA
DFE6
EF94
F600
28A1
E9F6
E108
1345
346D
DA93
078D
F13E
F7A0
20E3
16AB
F962
FB54
26C2
1CBC
201D
FC46
FA8F
F854
032A
0754
3753
F3BC
01DA
F630
BC3B
D88E
F98C
F4F9
1789
F43F
21D7
0FD8
4A1D
01B2
D7E8
1508
E8DE
F409
FE22
10FD
CD04
15DE
F687
2BBE
D240
F159
14C8
EE8B
07D1
2DF1
FA67
EB98
F7B6
FA75
0BB5
F702
50CC
0623
F664
F4EA
3DF3
4810
D87E
11BF
FD40
F062
2026
0294
E1A7
0E1E
E84A
D7A6
355F
F51C
2C96
D025
1EEC
1827
FE7D
19B9
16D5
0659
0014
1CF9
2FFA
BA19
2F11
F409
F8D8
DCBA
FB42
FAB7
F364
1DD7
F469
19A3
CE36
E9AD
D8FE
B95A
3D76
F3F6
EFC2
140B
AA7E
2686
1C9F
BCED
F1D3
0475
0A6B
1A32
EADF
E72D
C71C
0E5A
08EE
FB6D
FC11
2FB2
2044
EBD4
1BDA
143F
DC88
00D6
09AF
23F5
222A
D604
252C
19D6
D57B
D8B1
1CBC
E77B
EB7F
30AB
F150
EDAC
EB77
1AAA
DF4E
09F6
2001
3D9B
382A
E187
F9AF
0D9C
09C2
F815
F918
DDCE
2839
09A0
07B4
F563
4580
EF6F
E54C
0A6B
1CBD
CC5D
1C94
100B
10B8
0EA7
E9BF
03EE
061E
03F6
2332
F179
19A2
37DF
1D73
02AD
FE82
4483
C0D9
0203
F097
F3F9
DD0A
166A
FADC
EC72
12ED
1D95
D46B
2EF9
1402
EFA6
CDE5
2E57
F232
19B5
FC42
2E83
0294
F7F1
0FA9
FA52
19B8
DE14
01B7
F699
F9D3
FAEE
EC12
015A
F06F
064E
FF43
F451
E273
F78D
0EF1
EA51
E5F6
E6E9
1C6C
2D35
F918
1564
E979
176A
E142
E535
0A8E
099A
FF13
FC01
02FC
076F
2BBE
F61A
16CF
0D1B
F693
09C1
3546
435E
D035
0C8A
24E2
12E9
ECCD
036F
2116
DCC6
1169
0A1D
D7B1
01D7
351A
1066
2A11
BB52
02D6
1DB7
DE31
EF18
DFEF
33C6
EEDD
D3CA
015F
CD67
F5D7
D2C4
EDC4
DF15
E5A1
F0D0
D569
E953
0533
1B39
C841
F390
46C4
1952
E3D2
FC3C
1186
00C7
A700
0C88
07A0
0D2B
3584
D8D5
6199
0954
3BCF
FAEE
15BA
329C
184F
CCAE
04E7
DC95
0C38
2D1A
D3D1
04EB
0021
C239
2558
AD3F
6E27
C6B4
248E
20E3
2350
20CB
8001
0A49
F492
EEFD
5E1D
DDFF
58F3
0D70
EF53
0720
EE6B
A895
17B1
EA7E
0618
2235
4A5C
C028
3A23
2C47
DFB7
0A5D
40E5
F5DB
FF3F
EE6A
F61B
F3CE
FB4F
112E
268F
EE27
4BF4
04A2
F14D
F99D
F362
7BDD
A031
5F63
0E7D
2D06
3EBC
FDF9
0020
E08D
2B99
1B34
DE88
7FFF
C99A
0604
3392
E7B1
41DD
3955
D08B
F9B9
43B8
F50C
AE23
3FDB
DBC0
9FC1
29FD
5237
FAA4
1796
48A6
BDFF
2FCE
C3CD
3461
4FAE
C5DA
4A74
EFE4
F291
B432
F107
0715
BC76
FDC9
B3DD
3B72
CA85
DEDF
2253
EBB6
509F
0212
4DED
ACAF
33A8
17F0
31BB
38E0
03B2
538C
B0CA
C4D3
E561
E405
3704
5152
B223
8561
A0F4
0827
56F9
35E2
AD55
B4D8
5726
2D6F
5BF2
4A1D
CA62
10D6
3C88
E08D
AACD
B18F
A948
4186
DB0C
46FB
069D
EB6D
A196
51A4
41ED
D876
5A38
ADB1
1148
8001
3BF0
D412
4677
1F5A
4714
265D
B6F5
A92A
0D55
0CE6
06C4
15B5
08A0
1863
4841
19B3
0EB4
1BA3
0861
0D23
1580
17DA
4347
10B8
1C96
0835
0699
12CA
06B1
0771
2125
1419
300C
31F1
1C3E
0B27
0905
14B7
075B
0710
093E
05A8
1462
0C4F
1A78
0E79
1160
0C47
11AE
06E4
125F
0ACF
0F56
10AD
07C3
1847
0437
186A
179D
24A7
0DC9
0E2B
1935
2BDD
1284
5811
1FA5
07A3
43E7
2237
13EE
3175
2D8F
12E6
329B
1589
1DA9
0743
0E41
10DC
173F
1DFD
0D4F
1E5A
1A4A
17A7
0A2A
0FDE
152D
1545
2811
0D38
2C7B
187A
0A8A
7FFF
23CE
1454
0F5E
05A7
28D6
16B2
1CC1
3611
0CB1
5E1F
65B8
6C23
63A9
6050
628B
62B0
7028
68FF
656A
6811
6977
658D
662C
6486
6932
7246
610F
6934
6BC4
6E2B
6950
5B89
729F
6163
71AE
756A
6B53
6865
7782
5C2E
64B8
6293
66DE
6D77
5EE5
6413
6636
5946
6F35
6B00
70F3
6009
6B9A
716F
63FC
696D
598F
63E0
61FA
601C
7AA7
63BF
6D55
654C
6864
63E8
65C8
5C5C
6B7E
64A7
6945
6954
6D60
5B97
666F
6A31
6340
6578
69E8
611F
6ADB
65EB
671B
6712
6527
66AF
7FFF
5C37
70A0
6985
6311
730F
642B
79F1
5976
7672
62EE
721D
6A77
5B22
5E7A
753B
7018
69EA
6214
E1C3
07A3
D88D
CE61
0B9A
F56D
0217
E1B8
DF14
BEFD
0E1B
4846
2890
0B2C
0C5C
0710
E3BE
D5C2
0F2E
08FC
012A
1C72
FF18
2FF9
2638
1BD7
0B0A
1D32
11A3
EB8F
C2A8
DF1E
055C
2339
022D
CFD5
20C6
1446
F017
09EC
19D3
26EE
36C9
1950
0592
0E73
1DC9
3742
32D7
18A8
1A4A
FFA9
056B
189D
0CD3
D038
00A7
FF17
DD43
FE2F
168B
BA34
DB82
FBDA
E2C9
DEF1
D8E0
E9B4
FBC0
00E9
32E0
3E25
281D
2BA7
074A
3B3C
24A3
F068
136E
0FF0
EC82
0313
EB6B
DB8B
EFD9
C850
EBA9
2279
2B1F
2548
DA90
D8A6
E8A7
FF91
DFD5
E58D
EAF1
DC3F
F970
FF1F
04D9
0BF7
E306
FF40
38B4
3EAC
2DBC
1EB4
D22D
C880
F45B
FECA
1911
096D
0CA6
F5A8
CE77
E469
C996
E485
DA77
E653
B978
DED0
04AE
F926
0B7C
F755
E681
03E2
1BF1
2640
0C6C
1841
267B
2FAF
6639
166C
23E0
FC67
FFC8
21DF
FB9A
FC69
D486
E680
E6FC
E90D
0511
16AC
11E5
172D
20DD
E8AB
1274
2DAF
2197
3505
01F0
DBA4
FFCF
F136
01AE
240F
08BA
39AD
3633
190F
10FE
138B
0658
F3E2
EE0A
EC65
0428
FC54
E9BD
DDA7
CC5D
E9B8
E326
F1F7
00EB
07F3
1BBB
1F63
27EE
2CEB
249C
D625
E136
D85F
FB76
1089
F237
F1BC
FC73
D781
14B9
1929
EA7E
E85F
F600
1A52
044E
36D3
48D2
F12B
21E7
2C3A
21FB
F93F
08A2
314B
339E
2395
E311
ECA2
29D0
12C4
F11C
DD74
A210
DE27
F6F0
0B9D
2209
41EA
3F29
3423
FE6B
FA27
0E25
F62D
EE27
E0FC
F02A
163C
2592
1528
009A
E99A
D5EA
C3B7
E254
0759
19FC
13F2
FFC0
E06A
0123
1CED
9E83
DFEB
F2B7
CF8F
E8D2
F8BB
0A3F
0933
FC75
D51A
C694
E225
DC87
F02A
1FC8
1F5B
22FE
256C
3114
23A6
FA0D
1D9C
02BB
F3C5
CB71
EBA3
FA69
DEB9
F124
C2E0
D0A2
EB82
F031
12E9
FD3E
E5E1
3B80
20BA
E336
1980
FA45
CFEC
03CA
F7B2
DB48
DC53
D249
E0E7
EE2C
F439
EB93
0535
D8E6
D7A2
3F8F
2BB4
F8EA
FB39
EBC3
FD06
1626
18BB
2DA4
1081
E7C2
E542
EA91
CA9E
C826
0292
0CD8
FB25
1C5B
F415
EAA7
DBA0
C4CE
F393
EE37
084B
187A
CF8D
E2E2
154A
3745
16DC
1327
3233
1218
F132
0532
FA74
E2EB
CE6E
290C
288C
E146
F830
E215
1AB9
14A4
FD70
0A3A
1588
287F
34AE
2D60
0F36
1EA4
1CEC
FBCC
D80A
DE79
03FC
20B8
1221
E2E5
1A61
296D
042F
0015
2E57
3172
1EA5
0DDC
F44A
E687
FBD1
DC3E
EBE2
EC2C
EB8A
F537
C114
CEEA
32E7
20C3
1707
1474
2180
19C2
EB5B
E9A8
F496
2E7F
348E
2CBA
0F5C
E61D
D91E
FDE6
FB96
F185
F61C
08F8
32BB
116E
F3E0
2457
12DB
0C62
1BF9
FF3F
112C
2968
3944
3EA8
142A
F5C0
F3D8
FFAD
E3F3
06AD
0C1D
3D86
084B
01A6
0265
C74B
094E
156A
19BD
1F31
1366
2499
2111
157C
1DBB
18B6
D2C1
E885
E5F3
DC40
EF69
E043
E6A6
F66B
EF14
F381
E352
E9A4
2251
1608
F74C
048F
EA00
8001
E1A5
EF8A
E45A
CCF1
DB6C
EDFF
07FA
2656
382F
DFBE
D648
E5FE
C7F6
0981
02AE
0AFE
2060
0C91
1678
24AA
EC74
CE64
EFC0
3A51
3684
271E
1FB9
5A10
1ADF
1198
3FFD
1680
1ADA
198B
F94F
EF73
F3FF
DCAB
EC71
E411
E9BD
F2DF
F5DC
E689
C4A4
F4E0
B2FB
DDAE
E1B6
E7EC
CA56
EAB3
E94F
D411
F674
FA48
F6DC
D784
F187
CD7F
C582
D18B
D483
F453
3F37
0FCD
14C4
0774
08AE
1460
BF5F
DDAB
3340
2514
2507
1945
21C2
157B
F977
29B8
0B83
4245
2E81
0606
1955
3612
0AB2
D655
1941
ED0E
E48F
DB30
0B60
0BD5
C49F
E061
F1DD
DCE0
B622
12E6
F2D5
D8F2
877A
D100
FCED
F841
0BF4
0162
2C56
21CE
19EF
18C9
1B16
024F
09B5
1621
24CE
0004
10BD
24E5
13E0
0F56
1F61
EB61
FB69
3618
42B6
1FA0
23CE
3164
022F
15A4
0A0F
03BF
1E9A
231F
2586
185D
1D58
FCA1
FEA7
19B8
1AAA
2904
E320
EC99
F0A8
C3B3
E2BB
F335
05E8
001C
EB72
FC30
F197
ED9C
F4F8
F02C
EA25
1708
4342
34AA
EECE
27E8
3FC2
1DBB
1838
0412
EFE0
127C
203B
025E
CD32
D483
CD9C
DBF7
1004
0B05
2708
1785
FAF8
E944
D62C
E4B4
CF80
D868
E9B1
E7F8
F313
0408
DE1D
F4C9
E069
D744
E581
D807
E9F1
E491
EA24
D6E8
EB4A
F2A0
FD93
C8BD
E393
D880
EF22
53DA
25C0
10C7
1BC1
F3F8
050A
17C8
0204
F32A
DBCB
FA5E
EDD3
FA04
EFE3
0093
F729
E432
F99B
248E
25FF
19C2
1935
13A7
3DF8
F6E8
E513
1579
E3D5
DEA5
EDFB
0EFD
30EC
3496
1F3C
F289
DC20
B540
CBC6
FF8F
0D15
FB0E
0DCF
11D6
EF19
2D45
DDED
C600
C95B
D611
F42C
DF95
EA62
FADF
EAB1
109E
0D9A
17E8
209F
3445
30EC
1C2A
12D7
046C
35F1
30F8
0EE7
F6EB
230B
1ED4
16C1
0D34
EA5E
D2C6
D86A
D5A9
D666
E6AD
FD07
0A98
28A1
228B
1ECA
238B
0D3A
2375
1918
0BC4
176A
1AB8
274A
F0B2
EF04
E7B2
E340
DB22
D903
DE08
E1EC
EF07
0242
EE1E
469C
F86D
FABC
0A2E
CDAB
43CA
EFDA
C5A8
D239
B711
C568
C698
D60B
E592
000B
13D3
EED3
00B9
FFDB
3696
3350
2CFB
1C94
1C34
EE10
B67F
D606
FB15
D2EF
E2BA
0DEC
F921
0F0B
37FE
1648
1047
2F26
4893
18CE
11FB
0A37
F698
FD78
2AA2
F298
DDDF
1E45
FFCC
1934
0251
12F6
1CBD
ED36
06E0
0F55
DBFB
0CA2
210D
1748
3D98
66F7
2EEE
1C15
190A
11E7
0700
0EEF
0E57
19F0
207B
0673
F789
FD0F
F1D6
DCF1
D5D2
C97C
EB33
E081
D1DA
CD41
025B
BA99
DA34
08CC
D990
E1D2
0EB8
04CC
D2B4
EA24
FB48
0429
55F9
22B2
0B4B
E068
C365
5493
EB86
0083
2795
148E
2579
14F7
F46D
CFB4
DE8B
7FFF
E4B6
E4F1
1EAB
F04C
75AC
0AAB
07F5
0F3F
C64B
FD86
1E64
2AC9
1E69
3981
EDBF
1807
CA8A
DFED
3B5C
27A4
2B6C
358F
01E0
E383
F639
DDA2
E590
F899
2E81
1A13
17D8
23A2
C354
D660
F8F6
FA61
3B72
4128
FF17
1396
FDFD
3729
ECF4
47C1
0B7F
2DF4
E664
ED94
2705
2D94
F9F2
FA37
D4CE
D52A
3503
0B25
F3B8
21C1
16CE
20B3
3B9A
FA33
E802
1048
0758
255B
35C1
48A0
FA8F
F79C
393B
01CF
00F3
101A
F517
0FF5
09AF
F0BC
2CA1
19A6
CEC6
2E0A
FB13
0D21
44B2
16AB
1EAD
E5CA
7D79
1F52
BE72
2FB5
01D2
2056
3351
0072
3CFF
D598
F919
FF23
0F61
0300
1266
1F68
C5C1
1DF7
CD7C
2BC4
169E
22A5
2FE6
02A6
EC8F
5487
FDE2
0497
7FFF
238F
A5C7
F0CD
F3AA
1D68
09B4
3550
EC5B
D317
6DC0
FD2D
AF59
DCE3
1BEA
A7D9
CDA5
82C3
EF56
2F49
0FFF
EF9C
2602
DFF9
0D2C
D3BE
0EA7
04D2
28BA
5BA2
956C
CB3A
A741
D763
AF5F
E0DB
D585
CC4D
58E3
D9C2
B06B
A977
D186
FA39
C384
55D3
3517
31AE
D179
F74F
C75F
C4AC
FF50
E939
F161
4442
DF9F
EB4F
068E
1C15
18BA
CB27
D584
0E4C
B2E9
47FA
0E77
E18F
15EE
EB4F
9689
F2D5
D995
8001
1380
C5E4
B4D2
7790
CC43
0BC7
CB8A
1F2F
C33C
29F0
137D
F82F
0507
081B
F198
8B13
1572
A700
FC07
44B9
9E45
2B06
3164
18D7
49AF
223E
132C
DA84
2A59
4945
98E0
D762
C39F
EC3B
C8A5
D792
361B
FA66
BF1D
A843
4A97
106B
E4C8
62BE
92EC
1A8E
1C8E
02FD
9880
163F
F691
758A
14DE
D4AC
DBAC
3332
244C
38E6
261C
3A5E
48CC
57BA
2082
21ED
2508
21A9
2AB7
1CEE
3E33
35D0
1BF6
3B81
3D15
2067
25F4
1852
19DE
4849
24E0
3158
28C7
52E7
2311
2582
1EDB
1B19
332D
2E3C
20C7
184C
39E7
2992
30A3
2271
2790
3762
1CB9
3ABE
5ED7
4219
2482
2DB9
3264
2047
2FC8
2562
1868
454C
25AE
49F6
233F
19F5
287A
233D
20FF
46C7
5E52
3697
2661
3043
21F4
3D66
1EED
3380
5398
30E0
3FDE
406C
3743
1F3D
1E2E
3986
2823
3D62
2738
1811
1B03
1C62
1FDC
2081
22BF
5AA5
29EB
4025
241D
295D
535A
4CE6
7FFF
2157
184D
2EE8
1C3F
1F0F
31DC
40CA
2605
12CC
37AD
2B6D
29B4
1DED
21CF
3F97
2BC4
47D3
2EBA
2488
3367
3A02
2BF5
1865
4B90
20FB
2E98
3FFA
2D02
1B44
3591
3A85
3724
2B59
274E
6010
5C55
710D
7964
650E
6DFB
670D
6EFC
6967
62E7
663E
4D37
6959
6AC6
69DA
6822
50CD
79BE
6A09
6AEA
60A0
6E91
6792
65BC
698B
6061
6C7E
6673
63AA
683F
609B
62D2
692A
6208
6F1E
62BA
76F0
698A
6B50
68D1
647A
6905
6B2D
67C5
6153
6124
6E10
6BA4
60E4
5BFF
6F2D
6D38
78C7
684F
6AD3
5C8D
7326
6235
6760
686B
640B
633F
75B2
7FFF
662A
62B3
63EF
6C43
6F7F
6907
6A07
64A0
5F04
7A8D
6B7E
6E5F
7080
6801
64AF
5B7C
6939
70FF
6086
71AD
7150
7210
7BCA
7104
6841
6F15
6179
7027
6562
6472
785C
6D89
5E36
6977
6665
66BE
4B2F
706F
5A3D
6538
6FBE
6AF3
60AF
6B10
60FC
6552
79EC
6FD6
71F9
720A
6CAB
64AC
6077
6A1B
5D55
63D7
6763
689B
6797
722B
6CEB
5AB9
7B12
75AB
0779
17E9
03F5
F99D
F1B9
1E62
0048
0DC1
DD71
077A
F7D4
F1DC
2D8E
0453
04E7
E601
D30C
E4C5
EB6B
09BA
F71D
1F6D
0EBF
1C1B
0881
0BEC
F299
FD0F
0FB5
0AA6
FD7F
EF88
0E70
0A2F
0F6A
2934
045A
0011
EF4C
1583
D838
F7CA
F582
E85D
F9B8
2501
F432
20F3
1ACE
FF19
006E
04D4
F96F
16C6
EAEF
1A15
0158
0897
EF18
135B
FD7C
E4D5
0215
1549
E505
0339
DFE2
21E4
F73F
1F97
E911
CA36
03F2
139A
F4C4
EA29
E278
0183
FD46
000E
268B
EF9E
FF03
F778
2B41
F925
0504
E290
0C3D
0BAD
FDF2
2761
3DFC
FECA
E0DA
119D
1C42
DE82
1C84
0C56
1698
1195
029C
CEED
1898
2462
FEEE
D9F6
0592
01A3
05F9
05DB
FFD1
F487
F97A
D57D
0401
0D10
F750
F24E
0BA5
D278
0680
1B7E
FDCB
F0CC
0DD9
E52C
21A9
0CCA
03D3
F972
061B
E8ED
0726
45F7
1D0E
1348
F1D9
F18C
1256
FCC5
F37B
F634
0482
F930
21CC
0B15
041D
0553
F019
FCAB
FD54
E018
0E4C
F3ED
F875
017D
FADF
1416
F171
EA6D
E0D5
E7FC
EF7E
009E
EC48
F175
F4BC
F902
E54F
0A55
EDBD
EE05
0002
05E7
C09E
E3EE
EA81
E7BF
DF07
F834
D27F
073C
F821
FA14
1503
26A6
E95D
E387
E66B
1186
02E9
CC9A
080B
4C03
F738
0F47
0966
0B19
07EE
1A91
F6FE
EAE0
F9D6
17DC
11F6
094C
E35A
F9AC
E6EF
F7FC
E256
1609
E963
F1F2
173B
ECCC
F307
12A1
085A
D59A
F2E9
E48C
F972
FECF
31D0
D2E8
141A
DC32
E36F
0B51
01A1
0613
EFEF
FCB3
035F
CF8D
FBBE
02F3
0098
26BD
F350
F5DE
F08A
1086
096B
140F
FE83
0D44
DBFE
1163
ED15
2D5E
F9A3
4018
F2F4
05E0
F3E6
0D48
E9BB
F795
FF7D
178D
11F4
D52E
0C49
185D
FFBF
E997
235A
F30C
E251
DE3E
14CB
F383
1235
E4CF
2662
E8EC
2FC0
F968
D3CA
D156
152F
F3BA
25FA
D2B0
09C3
0192
0235
14C1
F317
FD35
E66C
EE6B
E078
19CE
F89E
0BBE
16BF
049D
F2A5
1D89
F4A2
06B5
0365
F04A
E99F
0D24
F598
0F53
010F
E3B3
0A1D
D8C8
1161
F903
FF34
075D
F26C
DB53
F79A
EA3A
DC27
0312
F95F
0543
F447
1AB7
1314
18CF
06B5
1FA0
2A71
E38E
EEA2
F613
E7BD
EB20
E01B
F908
D84C
FF98
000D
F7DA
F5AA
119F
E2F7
00BF
F070
13B7
1067
1452
1A3A
2BFB
0210
EC05
0DB5
17C8
E110
2760
EBB1
2DF0
17B5
2C86
F773
F472
FE12
0957
D225
FAE9
EC7D
FC1C
2AED
D7C4
0050
0640
F7ED
E7FC
FC78
0962
F18B
F8BB
1452
2222
EF8A
0064
F5E1
0F72
F612
EDF5
DEEB
3127
F10C
1807
F427
20CE
02BF
F37F
118D
E251
FCC9
C96D
FBAD
1520
EF11
E7DC
FB0C
DE65
141E
F7D2
0A05
0E25
0F75
F738
E96C
D9CF
F23A
1911
342E
0C42
F61C
073F
F638
0D01
E905
E5AB
EF05
1491
191B
EDE5
EEC1
1F37
FE5C
E896
0C98
E3B3
3AEA
EC92
F1EE
0A44
2B1B
FD5C
F41B
D124
00AF
F2F5
0979
174C
F2D3
07E8
E0E9
04EB
074D
FC52
083E
0F04
2F79
0E6A
FE97
41F3
0B38
176F
E4AD
0B78
2BC8
FB79
F04D
1249
EC3E
0494
15CF
2DC4
03D0
160A
D38E
F6FA
0403
20BA
E194
E7AB
0D07
F9F8
1BB1
EFD8
FD1E
E9D0
1AF3
F548
15FB
1272
E03C
FFCD
301E
FEDD
0909
E8B4
D4B2
051A
FCDA
0F15
F897
2410
EF8E
DD7B
F0D7
0601
E9D4
FD0C
0B76
1D99
0666
F5B2
2417
E78C
016A
E838
F7DB
17A8
093B
F4FD
0AE1
EFEB
FC8C
EEDF
0F60
FD4D
F0CC
F153
0A5B
F9C4
0012
2250
DC7C
FB01
0259
FCC0
1A3F
EF33
2941
E91D
22A1
0520
F7BB
06D4
ED58
0AC5
0358
EB4F
2245
1EFF
008E
077F
1117
F452
FAC1
067F
E841
24F8
C294
EF94
DC13
0B4B
1032
1776
0710
0E7A
FB20
0707
1B6D
F60A
1942
0511
E61F
FFD1
F205
DEA9
10F3
C97A
1EE0
023B
2A68
0817
0760
F3E9
1059
F2BE
0AAA
06C7
04D1
E699
EB5C
0BAB
1247
0D6F
0E2E
F52E
F3E1
3047
0BF8
BEC3
0E2A
E5C9
3114
1BD5
3419
0CBE
1D18
EF58
18C1
0B21
1256
FDBC
F164
F291
FDB6
DF77
F617
0F85
F699
D9FF
310D
F360
217E
0A37
010D
043E
ECF7
0D02
ED41
F98A
22C8
09EB
1D01
28E3
EBC3
0108
06ED
0CC2
EA9B
F82A
2709
F9CA
FB87
2A9D
ED6E
FE2B
FB27
F2A2
027D
EB0A
E4C6
18E1
19E4
2061
F391
D256
F9CB
11A7
DE90
06E5
D2B0
F63A
1BE4
03D5
F5A9
25B3
01D1
1C4F
09BE
FC6A
028B
062A
EC75
0D19
089B
E3D4
FCC5
FDF3
2080
2F31
FD67
18E0
FE3D
17B0
0C63
FCC8
F269
0D6E
0988
C8BE
CFB9
06DB
F613
F75E
FF68
F70E
ECE0
0AD3
092C
F876
F896
E4F6
0DD6
063D
DA63
2478
1678
1FBA
0E6F
F503
0D36
1FD8
D45F
0F1E
1C2A
F494
CC21
019D
03CD
15C8
0635
1A26
12B4
E1E2
1C36
37D9
FEE2
ECFB
2721
FD99
F56A
F2BF
2139
05A1
F4B8
F389
013E
D195
D723
17CE
E5EB
FAA5
DB09
FD02
FDF7
E8DF
0F2F
EA1A
1681
F578
E3B2
FEA5
1237
E8B9
D838
CFEB
F5BA
0DD9
FE20
014B
D70C
2B8B
00B0
1174
1D27
0BF1
F7B0
0BB2
D41C
DA1F
FEE6
F2D8
058F
1481
2376
027D
096B
01D4
FDE5
039C
F5B2
F174
E0B8
0C7F
FF51
10AE
08FB
EFD2
0622
48AD
1314
FC8D
EA4B
F4CA
F1CE
021F
1DAC
00B7
135A
FA7D
F659
F9D2
FE87
DD81
0D04
22EE
2FCE
0267
1512
E2D1
EF1E
FD52
E96E
239C
FB10
1950
FEB2
F114
1497
D435
FD5A
F23D
161D
03B7
122D
1654
D90B
09F2
FA2D
222A
FB98
0AF9
DBC7
FC58
0220
0137
FF21
1FBE
077F
190C
079D
DB8C
F9D0
FE95
02DC
F8FA
EDEF
F03E
EF26
F9C0
E5E9
21DE
EBBD
0D62
E376
F7CC
0064
B3EF
EF56
0CC6
C1AB
F6B5
2005
F7AD
26E5
E97E
026F
162D
F7EC
DB7A
0CD3
3125
E708
E757
E2AB
09CE
1EE1
FC0F
1102
E964
07F2
2E7B
EBBA
0A0A
1255
E29D
1CD6
FF9A
2E0B
24CE
0E2D
2798
F25A
FDC6
EAE3
E61A
EEF9
29AA
2698
0F03
079D
0D61
2FD7
1A0F
03FA
F748
E87A
F465
2A27
0778
F698
03EC
16C9
FAE0
F4D5
1CCA
E0CB
E4E4
002E
0BED
24CF
FD0F
06B1
0BE6
F571
0DBA
FF34
FC16
02BD
0C42
1A0F
11E3
05E2
217F
28E3
0F67
01EF
22A0
FE86
1CF9
2183
FB22
F9C2
04E7
F91A
0A9F
E9C7
F321
1BD9
E34E
F117
0908
2A8B
F5CC
029C
E3CE
FF88
FD71
07D3
F062
1566
0D63
FA1B
01E8
D578
FABB
0CD6
FB42
16DD
1073
F27C
19F6
0410
08C3
F948
FB32
FEC9
0B5A
E1A3
EE23
0D4D
F30E
00C5
2169
DDBB
1E47
1F04
2504
121F
1127
2927
2574
F695
EBAF
EADC
09F0
10DB
F8DA
2467
EB03
EB8B
05F8
F627
06C2
DF4D
0868
E8DD
F741
F9DC
C94C
0911
1E57
E5A9
0150
F92D
02B9
2A76
F31C
F666
074C
EEE5
EBC2
F5D8
0645
41E6
0A66
FD4C
E613
F8E3
F3D2
F6E9
173A
3440
FCCF
FA8E
ECB7
F949
159E
E9B4
C94D
D922
DE9F
2A69
113F
EF79
F351
F237
D61C
0AF4
1BD6
EF18
21F4
F565
F68D
0D88
0D6D
1B52
F156
E62A
FB67
0C94
FB31
CB3E
0F14
D2D8
0B78
14E8
0AD8
0465
024E
E2E9
137C
F3EE
F888
12DA
F88F
06E0
F001
18D2
0F8C
F16B
EE3A
1476
0277
F139
1CC7
E87E
FB38
1C24
FE2D
FDDB
F2E4
F352
164B
D080
F373
065C
B8B4
2DEE
0918
1361
F5A6
FCB6
010B
EE47
AA74
0073
22F3
05F4
0818
B12F
D2BB
F6EE
FD62
1606
F019
EB2A
0179
077A
E902
F75F
DD47
0B7F
0E42
08DA
045B
E42C
F6E7
F97D
F925
EE4F
D0CF
DAC1
0009
0BA9
1545
2827
0A71
ECEE
FB7B
0C79
0AB3
E744
F571
1AC7
FBDF
EAEB
2116
E60A
0A96
1037
F178
0306
0300
1EF6
F3EC
F4EC
101A
0527
1BC5
DD7B
16CC
DA43
DE5B
0304
FC6E
0A65
0AB7
3389
FF56
F113
FA26
EC46
F9EF
CB7F
F706
FAB4
043E
E3D0
087C
030E
032A
17D6
0A20
1652
EA93
092C
0C27
0A04
12FC
0B73
05A3
0300
FE68
0632
D7FB
FB0B
E34E
FC68
DE70
F3D5
0F20
0391
073D
066F
FAD8
E2CF
F684
2B9D
D63F
2848
E050
FF63
F3F6
0954
E334
266C
047A
00B2
FC13
4B13
2329
0114
E8D7
D8B5
F8D1
0FB2
0C0B
F7FE
F557
C64D
1140
121A
EE72
E5AF
19B7
E479
23DC
EC0B
E63B
2BAE
EDD9
E05D
FB25
F46E
09EF
0B24
F6E9
106F
025F
0258
D239
13B6
0545
0966
F21B
15EB
FD46
DC28
0844
1E60
EB3D
EB20
1969
EF9B
10BE
EA25
F0BB
007B
EE97
FAA4
F541
0570
1CFB
0340
1B72
1732
2750
0254
F29A
03A8
D031
FED7
045C
EF64
F6A6
FE47
000E
20CE
0FCC
FFCF
0715
FF11
2AAC
E9FA
23F2
F59A
F81A
EE2D
F7D5
0E6E
164A
EE3B
1471
14CA
17D4
0C8C
0EF4
F10B
F6F2
01A8
0FEE
E59D
26FC
162F
E006
057F
0D85
FEB7
1A48
E510
D361
048C
0195
F13F
D892
0C9A
0310
EA04
2FDF
D780
0BBD
0F62
282A
0C00
E3BB
DF19
47B6
FDB6
180A
F161
02FD
C7A2
04C0
BB17
F273
11EC
F7E8
E721
0A44
DB83
FA5F
F61B
F961
0B86
14FD
11E0
B7EE
0B3D
D729
25CF
0048
F471
0524
2618
1210
ECB6
E26B
DA79
075A
1C16
2343
EB82
FD31
1774
EEEE
DAC1
0906
EA02
F2BA
03D2
0ADF
EFFE
F964
1BA2
FAE5
CC80
FDE7
C75F
05C5
1427
D2F4
0F81
FD95
FF43
0401
12FE
FE07
298C
14C6
0187
F58F
F90C
1194
E5E4
FAF8
F839
EA50
1A5F
3780
ED21
F6D3
ED89
1C13
00EE
E0F5
03EF
1BCE
182B
FA70
F2A8
FC34
0353
EB26
DD02
1246
08F1
0906
CEA5
0D81
078E
D42D
E59F
F83E
089A
0540
FE49
0FD1
07FA
04EF
E48A
13DE
06E2
167C
D461
1147
13EA
E391
E574
3B6B
E92C
F3C0
2ACA
2781
E595
E5AF
EC88
EEB6
F4E4
1D1E
FB34
00A6
04D0
00E3
0380
FEE8
F18F
CF02
0C91
153C
DF45
F062
E4D4
FC18
FC78
1D55
34B0
0522
EE9D
FAD9
25E6
F9A8
D0A6
F86D
03E2
094D
CE60
1002
1783
FF2C
000B
F822
1C75
F31E
EB46
F9A2
00E7
0D48
0991
B6BF
FB9C
FDAA
E872
000E
02C1
0C05
E94C
008B
F62D
FF6E
0530
E005
0DB2
0874
09D9
FCB9
162F
DD17
F2F6
0B84
FE3D
0FB0
DD53
BF40
1929
FEF0
188F
0301
ED68
28EE
EFE8
0CB3
FFB4
F389
E7FC
0869
DDAD
137D
DD59
02F3
E586
EA02
0411
217C
1332
0756
0FE3
DF84
0940
CF54
D96F
EFE7
E17A
E5DC
B132
235D
EE44
E4BE
177E
022B
1755
EA7A
FC82
0C12
0DB8
07AB
F587
02A2
0982
F815
0588
DEB5
1345
10F3
04A1
115E
F93E
ED81
2602
EDA6
007D
E3A5
FCAD
1FCB
1A22
CFD4
0FF6
005F
CF33
EA4D
F873
CF6A
F86E
CA9F
01F1
F2EE
F2A5
2E33
F12E
0073
F047
E6F3
DF6F
EA60
FB59
EF9B
0301
07F8
F56B
FCF7
F588
2A67
FFCB
13E6
F39E
EADD
1A5F
FBB8
FED1
ED7E
08FC
F905
E344
E388
12D5
E1D3
EBAC
EEDC
0AA3
F24A
E1F4
01B0
E96B
F06F
067A
EC2D
CB8F
154E
1D83
30C4
EF95
1053
EB15
F029
2B31
0CC1
FA69
1842
FFAB
F818
DB6D
DC4B
DB10
0F4B
0034
DE9E
E585
D0D9
D6C9
1289
2140
098E
04A1
E0F3
1CDC
FEE0
0D66
DB45
ED0F
0742
F0F0
E1D2
DABF
00D4
24FB
01AC
0FDA
1361
DA4D
1E9E
13FE
077C
F398
D37C
F80E
F2F1
1A88
0B52
159B
2E8D
08B5
F27D
08DE
FF76
094B
F375
E712
1009
F75A
0EAF
F40B
2B0D
ED5F
F228
2A39
0BBF
1297
1648
01B8
1EE7
DE77
2C7A
E5FD
1C1D
E2B2
33BA
E6D0
1CFD
247F
F82E
FFB6
0EBB
D09E
165C
FB7F
E4DE
F29B
F50E
0C6C
E8A5
EAC0
0034
D60B
30A4
104F
CEED
04AB
079F
EDB0
0C0A
0C8E
1887
1499
F2A8
EFD2
FBB0
0AF8
E8E7
FC16
FB4D
01C5
FC48
12AE
F40E
159B
D155
1FB8
F5E5
252E
106A
011B
ED7C
1C85
282C
F658
0426
1E29
E9E0
09D3
D4A1
FF4C
FF7E
1880
045E
FC00
1897
083C
066A
0A9B
FC75
0871
160A
0F8B
2A29
1E0A
14A8
E95B
0F1B
F1C7
1CA3
F836
08C5
20DE
EF85
E8EE
E84F
E8C9
F268
1E27
4233
0CAC
EA42
0602
03B1
FFC2
1966
FE6F
1C17
18AF
F36E
E5A1
087A
019A
C9FD
0BD7
01FD
F585
D2FF
2688
0A99
F1AA
F5DF
0D9C
0EB9
F9D2
E736
F5D1
FEAF
456A
F636
00F3
FC43
1871
2764
1AFA
EA30
DBBC
F946
0BB4
05DA
F7A0
03E5
F997
09C9
D4E6
0218
0A58
E147
0F8A
E9D2
F9FF
303B
20D5
1E30
0A55
ED2E
F595
E90C
F74E
EA6B
07C3
19BA
04D5
FF81
15F1
08E1
22E1
0894
FE61
FD5A
F893
F089
1354
EBE0
1F28
0AE1
2B10
D275
100A
D61D
F522
1461
E702
121A
E624
10C0
F234
0D22
FA09
00A9
1386
DDF5
1D0F
058D
FB12
09CF
E39A
0CD8
032C
0DF8
D4AA
0B7D
042B
D5FB
282E
F753
04AF
05A2
2708
1A5E
D8AB
E2B4
E6AE
E2F0
E44E
09F1
F32F
0A28
1883
F4C4
FD80
FF35
1777
FE31
FF71
084B
F141
1AA2
008A
EBFF
E735
E009
F3CF
0BAA
F3A1
FD39
EC09
F217
EE41
0BB5
16BF
0279
10A8
0ACF
09B5
1247
227E
1A7E
DE6E
0234
FBED
0F2C
1379
FF60
F5EB
02A2
08D1
E59F
ED0B
0D01
F13A
1C1E
1498
F0FA
EDEC
F786
3A3A
D85C
0040
F73B
BF14
E9D0
0E08
0C46
D49C
191B
1490
02A0
0071
FD36
D5F0
F6BD
FD0A
F462
101B
FA32
F67E
DDAC
F438
F972
ED5D
2292
F1E0
00C8
2486
FE08
FAA0
E2A8
E308
13B2
F99E
0AA5
191A
247C
F629
310D
D856
0829
0DF8
E374
FE96
1C37
E089
0221
15AC
0DD4
346B
F2BB
11D5
F74B
E907
F7A6
0E96
0A71
0614
FDD3
F3E0
FB35
1E32
F249
F0BC
FA37
063A
136D
194C
F972
F4C4
EFD3
D7B0
0F4E
0228
ECFA
191E
EB7A
18BC
E606
CC20
17CD
F077
EE22
EA3E
2ED4
EDEA
1460
2B3A
1AB4
ED8F
F9D8
1259
E52D
0261
F4F4
F65B
183B
10DE
0B7F
FBC6
DF1A
E890
E438
F83F
0BC6
F2DD
EA63
DDBB
0BCA
0058
073E
0070
FEDF
19D2
12E2
E140
DFA8
16FA
1C1C
E73F
F494
F02A
F757
1C20
E95A
2063
F09E
FE0E
12CD
009C
0EC9
0A28
E9E4
2180
1846
278B
E0ED
0D85
072F
01D2
2424
0AE8
156B
F0AB
EB4D
E526
0DE5
FF4B
1052
E602
34D5
0B61
FE9C
0D5B
1B1D
F4A0
FDEE
E8D5
FEDB
008B
FAB1
FFD0
0C1B
1EBC
1418
1D83
08C7
2EF9
C724
07BA
DBC9
0195
EF91
EA3E
E705
1861
2685
E953
1BF8
14D8
016C
D295
E0F6
EAA3
E317
1CAD
1106
BDCB
FA0E
F8DE
1470
DD8C
F9E8
F7E8
37D9
17F8
ED43
F474
021F
FE6C
F49E
FC29
F740
06C9
F972
0A89
F8AE
CED7
0130
F20C
12C1
0FAF
0D94
0C59
D40B
F34C
1740
0B90
D5E1
9E17
0035
248C
DF78
EBED
E55B
0719
EDF1
10EC
EC4E
FDFC
D444
1A22
28C2
2CD0
017A
2FA4
1076
0380
FF6D
FA4F
FFA8
03D4
F553
FC0D
FCC8
0B89
22DD
0B29
0D1F
153E
24F0
D192
FB49
FDAC
285D
0D70
FADB
1EF4
EC45
DC4B
F64B
FEF9
EA6F
108D
FAB0
0E5F
293F
F7D1
079B
E522
0362
E49B
E44F
0D30
E6FD
006B
28BD
FE4C
F954
CAC4
0B92
1286
F2A8
1DBC
261E
F345
23CD
00A9
E66A
DCC7
FEBC
FCCE
110F
F524
F794
F0FF
2C4B
08BB
024C
F1E9
C385
F230
0B51
F7BF
E456
1843
E5FC
FA4E
060E
DB8C
0446
13AC
38D4
0397
E0EA
F1B6
1E7B
F77D
0C10
0EF3
0DF4
F191
0CFB
0170
15AA
1211
F929
02C3
EB60
1C4C
DAC1
255D
EFD6
EF39
DEF9
194E
F43C
DBDF
F653
F95D
25B0
0A91
2578
09DC
00E4
E137
E14B
DD3E
0F1A
DE1C
19DE
FCB5
FF19
D968
FD7E
FDF8
1066
0F04
2083
E9FA
EF5A
F8E7
059A
FE22
0179
F735
0EEE
050F
F224
D994
FBED
FE0E
E5A5
F59B
F9E8
CAD9
FD36
1B80
FCB3
D31C
F318
E701
FF5B
F038
DE49
ED6B
EB26
EDC1
F81C
F94F
220B
FF6B
F9CD
0562
F6D5
FF34
020C
15AE
0F3F
F9AA
F331
06A9
052A
0141
EFB0
E29A
116E
F2F3
3836
F15C
17CC
33BD
D821
06DE
0684
D8F9
111D
1637
EA64
07F6
F432
37F6
DE55
417D
06C8
1EA7
FAF5
E208
EBDB
F04F
F1CB
026C
E5CE
ECFC
E567
FEAB
D8C3
FA44
0D97
F558
026A
E8BA
02CE
ED1E
0556
057F
E313
E2AB
F4E6
18AD
0FF0
111A
2364
E63C
10A6
FAC7
DD20
FABF
0DAF
208B
F6B4
19DB
1A24
1F6C
0A81
FD15
3061
FCD9
F861
D21C
F4B5
CCF4
F0C8
17D3
E0C5
F352
081A
0EA1
F711
05CD
E0B8
3AD9
16CE
0A6D
FA6B
0B51
27AC
126F
1160
140D
F20B
0DCE
F722
127F
E6A4
0736
01E0
1923
F3C6
17A5
00C0
0369
0918
FFA6
19F8
05A6
0102
DBF3
F6C3
02AB
0E25
0CC0
E271
03F9
DF63
F9D6
0068
EF7D
0933
0214
FC89
F800
F493
EE8F
21F5
21D2
D667
040E
2769
04EA
0049
C844
F41E
EB64
F4E4
D9E0
03DD
D68D
0C85
CBBD
16F8
0BCE
00D9
DCEC
C2A8
E7F7
1B7B
33AF
2145
F632
1C22
0231
0E9E
150E
F65A
E311
0C28
F62B
E995
0C19
E801
02C6
0694
02BF
CF51
0023
01BA
067D
25AF
1E7E
1C24
E517
0B33
1988
0A5A
E661
0BB8
1A90
07A2
070C
EEB6
DBFD
FF11
EC1C
D60C
EBE2
F0C3
F7CA
0738
2614
D61D
F05C
B17C
07EC
D5D5
2049
201B
E76D
2754
308F
0246
178D
01C1
0D92
086C
017D
07F7
0949
117D
DCA3
EF03
1A9E
F696
22B8
1B02
220A
E055
ED30
0BDB
DD78
12B1
FF08
FA7A
F5C4
2CF8
E70A
FF77
1D01
0B23
0F00
0013
F1FE
1ADC
1044
0929
F1DD
F84D
F157
00AA
1468
EDDB
07CF
DBEB
04C1
1DCD
1C96
04C5
072F
E3E8
489A
0792
256F
1ACA
03D0
F6FD
E7F5
ED42
0311
FE23
032A
0382
1F75
1780
2E59
F67B
2D45
01DF
0EBA
032B
0608
FFBD
E190
06B8
15F4
0177
1CEC
15C7
ED2C
DD2D
072A
F6BC
D689
EA28
FD2D
DEB4
E927
E44C
FBBC
EF52
FE1A
040B
F1B8
1701
ED78
FA40
D7A3
FDF8
2D0B
13DE
1066
2E39
0E8B
0082
180F
F1FC
0F25
245A
F978
1BB2
DBA6
EB81
E7FB
F267
FEC4
179C
FC32
0C76
DF1F
0EC0
14A0
08A3
FD70
025A
E1EA
2296
122C
2114
F280
0145
0982
F345
EDE2
03FA
0412
EFEB
23ED
112E
EBA9
D92A
FF2C
02A6
FF76
0A44
F50C
1756
1F94
F422
EF43
026C
0EA6
0243
0FB4
0A61
F8C7
1694
F241
FCA0
11D2
EB1D
F771
1EA0
0DC4
0803
0956
2AA9
ED29
2098
0756
019D
084A
1E6E
F2D1
1F93
F936
295C
0325
066D
DE08
0191
2819
1C06
EDE0
1483
F5BF
F96A
DD98
FE91
04E1
0428
EC39
F9ED
F864
FE41
0612
FD89
033C
1C25
0B14
EEDA
14DD
0367
0246
1B25
133A
DEAE
12B3
D5D3
069C
FC0E
1D49
0BC1
16AA
2AFA
03EA
F57C
0461
0055
ED48
1AB0
F685
FF0F
EF48
F50D
1196
F090
19F6
EFE5
DD53
2278
FE8E
FF4D
F34C
E44C
EEA0
CF68
007D
0A72
DEDA
EBAD
092A
D939
ED94
078F
F11A
D9AA
0513
0329
16B5
F850
0129
E32D
0766
1640
F3A5
0E61
1ECA
03DC
13C7
EFFE
0BD6
18D5
11D5
CCDB
212F
FBF9
0451
E7C5
E253
2D97
D506
E671
0C31
EB6F
00CA
D5F6
2633
F571
F4C7
F4B2
1CEB
ECC7
F0B3
16C3
F2F9
FD3D
E54B
0BE3
0B7C
F803
27C4
1027
EC68
E878
EE6D
EF9F
124F
0949
E336
2CD5
CFA7
0618
DD50
F08B
FD69
E4E7
FE21
119C
007D
F7E1
E288
E367
1B25
0667
E457
16EA
005F
0374
20AD
06E4
F66D
10C1
2B86
E205
135E
D3EB
F2CD
EDB0
1B1C
F32F
0979
FC32
17AB
F3E8
0EBC
FFA0
1AFF
08E2
FA1C
F2D6
ED3A
FB7F
239D
E89E
10D7
0AE8
ED71
153A
0241
FD4D
F38E
FBD7
EAB8
FFC6
1575
1360
1165
F4AB
1AB9
1543
1ED1
DB42
F322
D21B
FECD
FDFB
0BD9
F62E
F7BD
FC72
05F7
E6F0
DA59
F37E
2ED3
F907
D2B3
0C19
D813
0BB6
1104
03F6
13CF
D7C5
26AB
FD32
FDDA
1DB3
05DD
FEE7
F54D
F7AE
D08F
0C57
091B
EEDD
CC8A
FD26
EE76
09F1
CCA6
F7F9
2A5F
F13F
FA80
EBAA
F94B
FE20
FD58
09F8
F100
0489
F485
1C7C
276E
E8D8
E9D2
0A4E
FF0B
083B
2195
F33B
E768
FF8E
F9A0
0257
E9B9
CC64
FB91
E9ED
C79E
0FBB
EE5F
D5A0
1F19
18A3
0816
FD38
0429
E274
DD63
F5F5
DEE0
E7EC
FB3F
E235
16E7
E673
FA47
EB42
22E0
E950
30A7
0A7E
032C
1DF1
F347
07DE
FC32
397A
04FE
3C8A
F692
FABB
D3A7
1287
E831
E81F
E088
C5C3
E1D3
FA84
02DA
DD93
E8BC
F6CB
FE34
F597
0EE2
065F
EF11
EBBF
0320
FF4F
FA08
272D
FB48
FE7C
F06B
2E57
0A0A
1709
F8B2
FAC9
F4DF
0585
1D21
E37B
0776
0166
D7F0
0210
EF76
FA72
F64B
0CBE
164F
D28A
F50A
F576
1F1B
1EB5
1D43
FDDE
F057
08A0
ED42
F0B2
FA23
F3A4
0B79
162F
F0E7
0894
127A
04C2
F316
FD32
D96E
E40C
F397
C2FE
0ED1
1310
3118
FE17
0394
EB73
F104
